{
  "vocab": {
    "<pad>": 0,
    "<unk>": 1,
    "<s>": 2,
    "</s>": 3,
    "!": 4,
    "\"": 5,
    "#": 6,
    "%": 7,
    "&": 8,
    "'": 9,
    "(": 10,
    ")": 11,
    "*": 12,
    "+": 13,
    ",": 14,
    "-": 15,
    ".": 16,
    "/": 17,
    "0": 18,
    "1": 19,
    "2": 20,
    "3": 21,
    "4": 22,
    "5": 23,
    "6": 24,
    "7": 25,
    "8": 26,
    "9": 27,
    ":": 28,
    ";": 29,
    "<": 30,
    "</w>": 31,
    "=": 32,
    ">": 33,
    "?": 34,
    "@": 35,
    "A": 36,
    "B": 37,
    "C": 38,
    "D": 39,
    "E": 40,
    "F": 41,
    "G": 42,
    "H": 43,
    "I": 44,
    "J": 45,
    "K": 46,
    "L": 47,
    "M": 48,
    "N": 49,
    "O": 50,
    "P": 51,
    "Q": 52,
    "R": 53,
    "S": 54,
    "T": 55,
    "U": 56,
    "V": 57,
    "W": 58,
    "X": 59,
    "Y": 60,
    "Z": 61,
    "[": 62,
    "\\": 63,
    "]": 64,
    "^": 65,
    "_": 66,
    "`": 67,
    "a": 68,
    "b": 69,
    "c": 70,
    "d": 71,
    "e": 72,
    "f": 73,
    "g": 74,
    "h": 75,
    "i": 76,
    "j": 77,
    "k": 78,
    "l": 79,
    "m": 80,
    "n": 81,
    "o": 82,
    "p": 83,
    "q": 84,
    "r": 85,
    "s": 86,
    "t": 87,
    "u": 88,
    "v": 89,
    "w": 90,
    "x": 91,
    "y": 92,
    "z": 93,
    "{": 94,
    "}": 95,
    "~": 96,
    "°": 97,
    "²": 98,
    "³": 99,
    "·": 100,
    "½": 101,
    "×": 102,
    "÷": 103,
    "ü": 104,
    "Χ": 105,
    "ί": 106,
    "α": 107,
    "ε": 108,
    "η": 109,
    "ι": 110,
    "κ": 111,
    "ο": 112,
    "π": 113,
    "ρ": 114,
    "ς": 115,
    "σ": 116,
    "τ": 117,
    "χ": 118,
    "ό": 119,
    "‘": 120,
    "’": 121,
    "“": 122,
    "”": 123,
    "•": 124,
    "…": 125,
    "′": 126,
    "※": 127,
    "℃": 128,
    "ℓ": 129,
    "Ⅱ": 130,
    "→": 131,
    "↔": 132,
    "√": 133,
    "∼": 134,
    "①": 135,
    "②": 136,
    "ⓒ": 137,
    "☆": 138,
    "♯": 139,
    "《": 140,
    "》": 141,
    "「": 142,
    "」": 143,
    "『": 144,
    "』": 145,
    "あ": 146,
    "い": 147,
    "う": 148,
    "え": 149,
    "お": 150,
    "か": 151,
    "ぎ": 152,
    "く": 153,
    "け": 154,
    "ご": 155,
    "ざ": 156,
    "し": 157,
    "じ": 158,
    "せ": 159,
    "た": 160,
    "だ": 161,
    "っ": 162,
    "と": 163,
    "ど": 164,
    "ね": 165,
    "び": 166,
    "ぶ": 167,
    "ま": 168,
    "ゅ": 169,
    "ょ": 170,
    "よ": 171,
    "ら": 172,
    "り": 173,
    "る": 174,
    "わ": 175,
    "ん": 176,
    "タ": 177,
    "マ": 178,
    "ㄱ": 179,
    "ㄴ": 180,
    "ㄷ": 181,
    "ㄹ": 182,
    "ㅁ": 183,
    "ㅂ": 184,
    "ㅃ": 185,
    "ㅅ": 186,
    "ㅆ": 187,
    "ㅇ": 188,
    "ㅈ": 189,
    "ㅉ": 190,
    "ㅌ": 191,
    "ㅍ": 192,
    "ㅎ": 193,
    "ㅐ": 194,
    "ㅜ": 195,
    "ㅣ": 196,
    "ㆍ": 197,
    "㎏": 198,
    "㎖": 199,
    "㎛": 200,
    "㎝": 201,
    "㎞": 202,
    "㎢": 203,
    "㑇": 204,
    "一": 205,
    "丁": 206,
    "三": 207,
    "上": 208,
    "不": 209,
    "丑": 210,
    "両": 211,
    "中": 212,
    "九": 213,
    "乳": 214,
    "亂": 215,
    "事": 216,
    "二": 217,
    "井": 218,
    "亡": 219,
    "京": 220,
    "人": 221,
    "仙": 222,
    "仲": 223,
    "何": 224,
    "佛": 225,
    "信": 226,
    "候": 227,
    "借": 228,
    "倫": 229,
    "假": 230,
    "健": 231,
    "傲": 232,
    "債": 233,
    "傷": 234,
    "傾": 235,
    "僞": 236,
    "僧": 237,
    "價": 238,
    "儀": 239,
    "儿": 240,
    "兩": 241,
    "八": 242,
    "共": 243,
    "典": 244,
    "再": 245,
    "冠": 246,
    "冬": 247,
    "凶": 248,
    "击": 249,
    "刃": 250,
    "分": 251,
    "切": 252,
    "利": 253,
    "制": 254,
    "券": 255,
    "刺": 256,
    "削": 257,
    "剌": 258,
    "前": 259,
    "剛": 260,
    "割": 261,
    "劍": 262,
    "劑": 263,
    "加": 264,
    "動": 265,
    "化": 266,
    "十": 267,
    "卑": 268,
    "卒": 269,
    "占": 270,
    "危": 271,
    "厄": 272,
    "反": 273,
    "口": 274,
    "可": 275,
    "史": 276,
    "司": 277,
    "吉": 278,
    "名": 279,
    "君": 280,
    "否": 281,
    "呂": 282,
    "周": 283,
    "命": 284,
    "和": 285,
    "哀": 286,
    "品": 287,
    "哭": 288,
    "問": 289,
    "喜": 290,
    "喪": 291,
    "嗚": 292,
    "嘴": 293,
    "四": 294,
    "回": 295,
    "國": 296,
    "圓": 297,
    "坐": 298,
    "坑": 299,
    "坡": 300,
    "城": 301,
    "基": 302,
    "報": 303,
    "塵": 304,
    "塹": 305,
    "墮": 306,
    "壞": 307,
    "壬": 308,
    "壽": 309,
    "多": 310,
    "夜": 311,
    "大": 312,
    "天": 313,
    "太": 314,
    "夭": 315,
    "奈": 316,
    "套": 317,
    "奪": 318,
    "女": 319,
    "奴": 320,
    "妃": 321,
    "姦": 322,
    "娥": 323,
    "婢": 324,
    "嫁": 325,
    "子": 326,
    "孔": 327,
    "字": 328,
    "孝": 329,
    "孤": 330,
    "孫": 331,
    "學": 332,
    "孺": 333,
    "宗": 334,
    "官": 335,
    "害": 336,
    "寡": 337,
    "寸": 338,
    "對": 339,
    "小": 340,
    "尺": 341,
    "局": 342,
    "山": 343,
    "岐": 344,
    "峒": 345,
    "崆": 346,
    "崔": 347,
    "川": 348,
    "巴": 349,
    "市": 350,
    "帝": 351,
    "常": 352,
    "幄": 353,
    "干": 354,
    "年": 355,
    "幾": 356,
    "庚": 357,
    "廟": 358,
    "廢": 359,
    "式": 360,
    "引": 361,
    "弱": 362,
    "强": 363,
    "彈": 364,
    "形": 365,
    "征": 366,
    "後": 367,
    "從": 368,
    "御": 369,
    "德": 370,
    "忌": 371,
    "忠": 372,
    "怒": 373,
    "怠": 374,
    "怨": 375,
    "怪": 376,
    "恐": 377,
    "恒": 378,
    "恥": 379,
    "恩": 380,
    "悌": 381,
    "患": 382,
    "惡": 383,
    "惱": 384,
    "愁": 385,
    "意": 386,
    "愧": 387,
    "慾": 388,
    "懲": 389,
    "戈": 390,
    "戊": 391,
    "戌": 392,
    "成": 393,
    "戰": 394,
    "所": 395,
    "手": 396,
    "才": 397,
    "打": 398,
    "抄": 399,
    "抑": 400,
    "投": 401,
    "折": 402,
    "拉": 403,
    "拘": 404,
    "掠": 405,
    "推": 406,
    "提": 407,
    "換": 408,
    "損": 409,
    "搖": 410,
    "搜": 411,
    "擊": 412,
    "故": 413,
    "敗": 414,
    "散": 415,
    "敬": 416,
    "數": 417,
    "文": 418,
    "斷": 419,
    "方": 420,
    "族": 421,
    "日": 422,
    "旬": 423,
    "旱": 424,
    "昇": 425,
    "明": 426,
    "暇": 427,
    "暈": 428,
    "書": 429,
    "曾": 430,
    "會": 431,
    "月": 432,
    "服": 433,
    "朝": 434,
    "木": 435,
    "本": 436,
    "朱": 437,
    "東": 438,
    "林": 439,
    "枯": 440,
    "査": 441,
    "株": 442,
    "格": 443,
    "梁": 444,
    "梯": 445,
    "棄": 446,
    "次": 447,
    "欺": 448,
    "歌": 449,
    "歎": 450,
    "止": 451,
    "正": 452,
    "武": 453,
    "歲": 454,
    "死": 455,
    "殃": 456,
    "殉": 457,
    "毁": 458,
    "毒": 459,
    "气": 460,
    "氣": 461,
    "水": 462,
    "氷": 463,
    "永": 464,
    "汗": 465,
    "江": 466,
    "汰": 467,
    "沈": 468,
    "沖": 469,
    "沙": 470,
    "河": 471,
    "沸": 472,
    "油": 473,
    "法": 474,
    "波": 475,
    "泣": 476,
    "泥": 477,
    "泰": 478,
    "洒": 479,
    "洲": 480,
    "派": 481,
    "浴": 482,
    "海": 483,
    "消": 484,
    "淚": 485,
    "淫": 486,
    "添": 487,
    "減": 488,
    "渴": 489,
    "湯": 490,
    "滿": 491,
    "漏": 492,
    "漢": 493,
    "漫": 494,
    "濁": 495,
    "濟": 496,
    "濠": 497,
    "灣": 498,
    "火": 499,
    "焦": 500,
    "煎": 501,
    "爪": 502,
    "爭": 503,
    "父": 504,
    "片": 505,
    "牛": 506,
    "特": 507,
    "犬": 508,
    "犯": 509,
    "狗": 510,
    "狼": 511,
    "猜": 512,
    "獨": 513,
    "獵": 514,
    "獻": 515,
    "玄": 516,
    "玉": 517,
    "球": 518,
    "琴": 519,
    "瑞": 520,
    "生": 521,
    "甲": 522,
    "申": 523,
    "畏": 524,
    "番": 525,
    "畵": 526,
    "疑": 527,
    "疫": 528,
    "病": 529,
    "症": 530,
    "痛": 531,
    "登": 532,
    "百": 533,
    "的": 534,
    "盜": 535,
    "盲": 536,
    "眉": 537,
    "看": 538,
    "碼": 539,
    "祖": 540,
    "神": 541,
    "禍": 542,
    "福": 543,
    "禮": 544,
    "私": 545,
    "程": 546,
    "窺": 547,
    "競": 548,
    "符": 549,
    "籍": 550,
    "米": 551,
    "糖": 552,
    "紅": 553,
    "納": 554,
    "紙": 555,
    "素": 556,
    "終": 557,
    "結": 558,
    "絶": 559,
    "綏": 560,
    "經": 561,
    "維": 562,
    "線": 563,
    "緣": 564,
    "縮": 565,
    "缺": 566,
    "罡": 567,
    "罷": 568,
    "羅": 569,
    "美": 570,
    "義": 571,
    "考": 572,
    "耳": 573,
    "耽": 574,
    "聖": 575,
    "聲": 576,
    "肛": 577,
    "肪": 578,
    "胃": 579,
    "胡": 580,
    "脂": 581,
    "脈": 582,
    "脾": 583,
    "腐": 584,
    "腦": 585,
    "臘": 586,
    "自": 587,
    "至": 588,
    "舊": 589,
    "色": 590,
    "艶": 591,
    "芝": 592,
    "芽": 593,
    "苦": 594,
    "英": 595,
    "草": 596,
    "荒": 597,
    "莖": 598,
    "華": 599,
    "萄": 600,
    "萬": 601,
    "葉": 602,
    "葡": 603,
    "藏": 604,
    "蘭": 605,
    "虎": 606,
    "號": 607,
    "蚊": 608,
    "蚤": 609,
    "蟲": 610,
    "血": 611,
    "衡": 612,
    "衣": 613,
    "衰": 614,
    "被": 615,
    "裂": 616,
    "襲": 617,
    "西": 618,
    "見": 619,
    "視": 620,
    "觀": 621,
    "言": 622,
    "詩": 623,
    "誘": 624,
    "語": 625,
    "誤": 626,
    "談": 627,
    "讀": 628,
    "豊": 629,
    "貧": 630,
    "貪": 631,
    "貴": 632,
    "賀": 633,
    "趣": 634,
    "踊": 635,
    "身": 636,
    "車": 637,
    "軒": 638,
    "軺": 639,
    "載": 640,
    "轄": 641,
    "辰": 642,
    "辱": 643,
    "迂": 644,
    "退": 645,
    "逃": 646,
    "通": 647,
    "週": 648,
    "逸": 649,
    "道": 650,
    "違": 651,
    "遮": 652,
    "郞": 653,
    "都": 654,
    "酉": 655,
    "醫": 656,
    "野": 657,
    "針": 658,
    "錄": 659,
    "錢": 660,
    "錯": 661,
    "鎭": 662,
    "長": 663,
    "門": 664,
    "閨": 665,
    "閻": 666,
    "阿": 667,
    "陀": 668,
    "陋": 669,
    "降": 670,
    "陰": 671,
    "陵": 672,
    "階": 673,
    "隔": 674,
    "障": 675,
    "險": 676,
    "集": 677,
    "雜": 678,
    "難": 679,
    "雨": 680,
    "露": 681,
    "非": 682,
    "韓": 683,
    "順": 684,
    "頭": 685,
    "類": 686,
    "風": 687,
    "飛": 688,
    "飢": 689,
    "飮": 690,
    "養": 691,
    "餓": 692,
    "餠": 693,
    "馬": 694,
    "驚": 695,
    "驥": 696,
    "鬪": 697,
    "鬼": 698,
    "魂": 699,
    "魚": 700,
    "鳴": 701,
    "鷄": 702,
    "麵": 703,
    "麻": 704,
    "黎": 705,
    "黑": 706,
    "鼓": 707,
    "齋": 708,
    "齒": 709,
    "가": 710,
    "각": 711,
    "간": 712,
    "갇": 713,
    "갈": 714,
    "갉": 715,
    "감": 716,
    "갑": 717,
    "값": 718,
    "갓": 719,
    "갔": 720,
    "강": 721,
    "갖": 722,
    "갗": 723,
    "같": 724,
    "갚": 725,
    "갛": 726,
    "개": 727,
    "객": 728,
    "갤": 729,
    "갯": 730,
    "갱": 731,
    "갸": 732,
    "걀": 733,
    "거": 734,
    "걱": 735,
    "건": 736,
    "걷": 737,
    "걸": 738,
    "검": 739,
    "겁": 740,
    "것": 741,
    "겆": 742,
    "겉": 743,
    "겊": 744,
    "게": 745,
    "겐": 746,
    "겔": 747,
    "겟": 748,
    "겠": 749,
    "겨": 750,
    "격": 751,
    "겪": 752,
    "견": 753,
    "결": 754,
    "겸": 755,
    "겹": 756,
    "겻": 757,
    "겼": 758,
    "경": 759,
    "곁": 760,
    "계": 761,
    "고": 762,
    "곡": 763,
    "곤": 764,
    "곧": 765,
    "골": 766,
    "곰": 767,
    "곱": 768,
    "곳": 769,
    "공": 770,
    "곶": 771,
    "과": 772,
    "곽": 773,
    "관": 774,
    "괄": 775,
    "괌": 776,
    "광": 777,
    "괜": 778,
    "괴": 779,
    "굉": 780,
    "교": 781,
    "구": 782,
    "국": 783,
    "군": 784,
    "굳": 785,
    "굴": 786,
    "굵": 787,
    "굶": 788,
    "굼": 789,
    "굽": 790,
    "궁": 791,
    "궂": 792,
    "궈": 793,
    "권": 794,
    "궐": 795,
    "궤": 796,
    "귀": 797,
    "귄": 798,
    "귐": 799,
    "귑": 800,
    "귓": 801,
    "규": 802,
    "균": 803,
    "귤": 804,
    "그": 805,
    "극": 806,
    "근": 807,
    "귾": 808,
    "글": 809,
    "긁": 810,
    "금": 811,
    "급": 812,
    "긋": 813,
    "긍": 814,
    "기": 815,
    "긱": 816,
    "긴": 817,
    "길": 818,
    "김": 819,
    "깁": 820,
    "깃": 821,
    "깅": 822,
    "깊": 823,
    "까": 824,
    "깍": 825,
    "깎": 826,
    "깐": 827,
    "깔": 828,
    "깜": 829,
    "깝": 830,
    "깡": 831,
    "깥": 832,
    "깨": 833,
    "깰": 834,
    "깻": 835,
    "깼": 836,
    "꺼": 837,
    "꺽": 838,
    "꺾": 839,
    "껄": 840,
    "껌": 841,
    "껍": 842,
    "껏": 843,
    "껐": 844,
    "껑": 845,
    "께": 846,
    "껴": 847,
    "꼈": 848,
    "꼬": 849,
    "꼭": 850,
    "꼴": 851,
    "꼼": 852,
    "꼽": 853,
    "꼿": 854,
    "꽁": 855,
    "꽂": 856,
    "꽃": 857,
    "꽉": 858,
    "꽝": 859,
    "꽤": 860,
    "꾀": 861,
    "꾈": 862,
    "꾸": 863,
    "꾹": 864,
    "꾼": 865,
    "꿀": 866,
    "꿇": 867,
    "꿈": 868,
    "꿉": 869,
    "꿋": 870,
    "꿔": 871,
    "꿨": 872,
    "꿩": 873,
    "꿰": 874,
    "뀌": 875,
    "뀐": 876,
    "뀔": 877,
    "뀝": 878,
    "끄": 879,
    "끈": 880,
    "끊": 881,
    "끌": 882,
    "끓": 883,
    "끔": 884,
    "끗": 885,
    "끙": 886,
    "끝": 887,
    "끼": 888,
    "낀": 889,
    "낄": 890,
    "낌": 891,
    "낍": 892,
    "나": 893,
    "낙": 894,
    "낚": 895,
    "난": 896,
    "낟": 897,
    "날": 898,
    "낡": 899,
    "남": 900,
    "납": 901,
    "낫": 902,
    "났": 903,
    "낭": 904,
    "낮": 905,
    "낯": 906,
    "낱": 907,
    "낳": 908,
    "내": 909,
    "낵": 910,
    "낸": 911,
    "낼": 912,
    "냄": 913,
    "냅": 914,
    "냈": 915,
    "냉": 916,
    "냐": 917,
    "냥": 918,
    "너": 919,
    "넉": 920,
    "넋": 921,
    "넌": 922,
    "널": 923,
    "넓": 924,
    "넘": 925,
    "넙": 926,
    "넝": 927,
    "넣": 928,
    "네": 929,
    "넨": 930,
    "넬": 931,
    "넵": 932,
    "넷": 933,
    "녀": 934,
    "녁": 935,
    "년": 936,
    "념": 937,
    "녔": 938,
    "녕": 939,
    "노": 940,
    "녹": 941,
    "논": 942,
    "놀": 943,
    "놈": 944,
    "농": 945,
    "높": 946,
    "놓": 947,
    "놔": 948,
    "놨": 949,
    "뇌": 950,
    "뇨": 951,
    "뇽": 952,
    "누": 953,
    "눅": 954,
    "눈": 955,
    "눌": 956,
    "눕": 957,
    "눗": 958,
    "눠": 959,
    "뉘": 960,
    "뉜": 961,
    "뉩": 962,
    "뉴": 963,
    "늄": 964,
    "느": 965,
    "늑": 966,
    "는": 967,
    "늘": 968,
    "늠": 969,
    "능": 970,
    "늦": 971,
    "늬": 972,
    "니": 973,
    "닉": 974,
    "닌": 975,
    "닐": 976,
    "님": 977,
    "닙": 978,
    "닝": 979,
    "다": 980,
    "닥": 981,
    "닦": 982,
    "단": 983,
    "닫": 984,
    "달": 985,
    "닭": 986,
    "닮": 987,
    "닳": 988,
    "담": 989,
    "답": 990,
    "닷": 991,
    "당": 992,
    "닻": 993,
    "닿": 994,
    "대": 995,
    "댄": 996,
    "댐": 997,
    "댑": 998,
    "댓": 999,
    "댔": 1000,
    "댕": 1001,
    "댜": 1002,
    "더": 1003,
    "덕": 1004,
    "던": 1005,
    "덜": 1006,
    "덟": 1007,
    "덤": 1008,
    "덥": 1009,
    "덧": 1010,
    "덩": 1011,
    "덫": 1012,
    "덮": 1013,
    "데": 1014,
    "덱": 1015,
    "덴": 1016,
    "델": 1017,
    "뎅": 1018,
    "뎌": 1019,
    "도": 1020,
    "독": 1021,
    "돈": 1022,
    "돋": 1023,
    "돌": 1024,
    "돔": 1025,
    "돕": 1026,
    "돗": 1027,
    "동": 1028,
    "돛": 1029,
    "돼": 1030,
    "됐": 1031,
    "되": 1032,
    "된": 1033,
    "될": 1034,
    "됨": 1035,
    "됩": 1036,
    "됬": 1037,
    "두": 1038,
    "둑": 1039,
    "둔": 1040,
    "둘": 1041,
    "둠": 1042,
    "둡": 1043,
    "둥": 1044,
    "둬": 1045,
    "뒀": 1046,
    "뒤": 1047,
    "뒷": 1048,
    "듀": 1049,
    "드": 1050,
    "득": 1051,
    "든": 1052,
    "듣": 1053,
    "들": 1054,
    "듦": 1055,
    "듬": 1056,
    "듭": 1057,
    "듯": 1058,
    "등": 1059,
    "듸": 1060,
    "디": 1061,
    "딕": 1062,
    "딘": 1063,
    "딛": 1064,
    "딜": 1065,
    "딤": 1066,
    "딧": 1067,
    "딩": 1068,
    "딪": 1069,
    "따": 1070,
    "딱": 1071,
    "딴": 1072,
    "딸": 1073,
    "땀": 1074,
    "땅": 1075,
    "때": 1076,
    "땐": 1077,
    "땜": 1078,
    "땠": 1079,
    "땡": 1080,
    "떠": 1081,
    "떡": 1082,
    "떤": 1083,
    "떨": 1084,
    "떫": 1085,
    "떻": 1086,
    "떼": 1087,
    "뗀": 1088,
    "뗏": 1089,
    "또": 1090,
    "똑": 1091,
    "똥": 1092,
    "뚜": 1093,
    "뚝": 1094,
    "뚤": 1095,
    "뚫": 1096,
    "뚱": 1097,
    "뛰": 1098,
    "뛴": 1099,
    "뛸": 1100,
    "뜨": 1101,
    "뜩": 1102,
    "뜬": 1103,
    "뜯": 1104,
    "뜰": 1105,
    "뜸": 1106,
    "뜹": 1107,
    "뜻": 1108,
    "띄": 1109,
    "띈": 1110,
    "띌": 1111,
    "띕": 1112,
    "띠": 1113,
    "띤": 1114,
    "띱": 1115,
    "띵": 1116,
    "라": 1117,
    "락": 1118,
    "란": 1119,
    "랄": 1120,
    "람": 1121,
    "랍": 1122,
    "랐": 1123,
    "랑": 1124,
    "랖": 1125,
    "랗": 1126,
    "래": 1127,
    "랙": 1128,
    "랜": 1129,
    "램": 1130,
    "랩": 1131,
    "랫": 1132,
    "랬": 1133,
    "랭": 1134,
    "략": 1135,
    "량": 1136,
    "러": 1137,
    "럭": 1138,
    "런": 1139,
    "럴": 1140,
    "럼": 1141,
    "럽": 1142,
    "럿": 1143,
    "렀": 1144,
    "렁": 1145,
    "렇": 1146,
    "레": 1147,
    "렉": 1148,
    "렌": 1149,
    "렐": 1150,
    "렘": 1151,
    "렛": 1152,
    "려": 1153,
    "력": 1154,
    "련": 1155,
    "렬": 1156,
    "렴": 1157,
    "렵": 1158,
    "렷": 1159,
    "렸": 1160,
    "령": 1161,
    "례": 1162,
    "로": 1163,
    "록": 1164,
    "론": 1165,
    "롤": 1166,
    "롬": 1167,
    "롭": 1168,
    "롯": 1169,
    "롱": 1170,
    "뢰": 1171,
    "료": 1172,
    "룡": 1173,
    "루": 1174,
    "룩": 1175,
    "룬": 1176,
    "룰": 1177,
    "룸": 1178,
    "룹": 1179,
    "룻": 1180,
    "뤄": 1181,
    "뤘": 1182,
    "뤼": 1183,
    "류": 1184,
    "륙": 1185,
    "륜": 1186,
    "률": 1187,
    "륨": 1188,
    "륭": 1189,
    "르": 1190,
    "륵": 1191,
    "른": 1192,
    "를": 1193,
    "름": 1194,
    "릅": 1195,
    "릇": 1196,
    "릉": 1197,
    "릎": 1198,
    "리": 1199,
    "릭": 1200,
    "린": 1201,
    "릴": 1202,
    "림": 1203,
    "립": 1204,
    "릿": 1205,
    "링": 1206,
    "마": 1207,
    "막": 1208,
    "만": 1209,
    "많": 1210,
    "맏": 1211,
    "말": 1212,
    "맑": 1213,
    "맘": 1214,
    "맛": 1215,
    "망": 1216,
    "맞": 1217,
    "맡": 1218,
    "맣": 1219,
    "매": 1220,
    "맥": 1221,
    "맨": 1222,
    "맵": 1223,
    "맷": 1224,
    "맹": 1225,
    "맺": 1226,
    "머": 1227,
    "먹": 1228,
    "먼": 1229,
    "멀": 1230,
    "멈": 1231,
    "멋": 1232,
    "멍": 1233,
    "메": 1234,
    "멕": 1235,
    "멘": 1236,
    "멜": 1237,
    "멤": 1238,
    "멥": 1239,
    "멧": 1240,
    "멨": 1241,
    "며": 1242,
    "멱": 1243,
    "면": 1244,
    "멸": 1245,
    "몄": 1246,
    "명": 1247,
    "몇": 1248,
    "몜": 1249,
    "모": 1250,
    "목": 1251,
    "몬": 1252,
    "몰": 1253,
    "몸": 1254,
    "몹": 1255,
    "못": 1256,
    "몽": 1257,
    "묘": 1258,
    "무": 1259,
    "묵": 1260,
    "묶": 1261,
    "문": 1262,
    "묻": 1263,
    "물": 1264,
    "묽": 1265,
    "뭄": 1266,
    "뭅": 1267,
    "뭇": 1268,
    "뭉": 1269,
    "뭍": 1270,
    "뭐": 1271,
    "뭔": 1272,
    "뭘": 1273,
    "뮌": 1274,
    "뮤": 1275,
    "뮬": 1276,
    "뮴": 1277,
    "므": 1278,
    "믄": 1279,
    "믈": 1280,
    "미": 1281,
    "믹": 1282,
    "민": 1283,
    "믿": 1284,
    "밀": 1285,
    "밋": 1286,
    "밍": 1287,
    "및": 1288,
    "밑": 1289,
    "바": 1290,
    "박": 1291,
    "밖": 1292,
    "반": 1293,
    "받": 1294,
    "발": 1295,
    "밝": 1296,
    "밟": 1297,
    "밤": 1298,
    "밥": 1299,
    "밧": 1300,
    "방": 1301,
    "밭": 1302,
    "배": 1303,
    "백": 1304,
    "밴": 1305,
    "밸": 1306,
    "뱀": 1307,
    "뱃": 1308,
    "뱅": 1309,
    "뱉": 1310,
    "버": 1311,
    "벅": 1312,
    "번": 1313,
    "벌": 1314,
    "범": 1315,
    "법": 1316,
    "벗": 1317,
    "벙": 1318,
    "벚": 1319,
    "베": 1320,
    "벡": 1321,
    "벤": 1322,
    "벨": 1323,
    "벳": 1324,
    "벵": 1325,
    "벼": 1326,
    "벽": 1327,
    "변": 1328,
    "별": 1329,
    "볍": 1330,
    "볏": 1331,
    "병": 1332,
    "볕": 1333,
    "보": 1334,
    "복": 1335,
    "볶": 1336,
    "본": 1337,
    "볼": 1338,
    "봄": 1339,
    "봅": 1340,
    "봇": 1341,
    "봉": 1342,
    "봐": 1343,
    "봣": 1344,
    "봤": 1345,
    "뵈": 1346,
    "부": 1347,
    "북": 1348,
    "분": 1349,
    "붇": 1350,
    "불": 1351,
    "붉": 1352,
    "붐": 1353,
    "붓": 1354,
    "붕": 1355,
    "붙": 1356,
    "뷔": 1357,
    "뷰": 1358,
    "브": 1359,
    "븐": 1360,
    "블": 1361,
    "비": 1362,
    "빅": 1363,
    "빈": 1364,
    "빌": 1365,
    "빔": 1366,
    "빗": 1367,
    "빙": 1368,
    "빚": 1369,
    "빛": 1370,
    "빠": 1371,
    "빡": 1372,
    "빤": 1373,
    "빨": 1374,
    "빵": 1375,
    "빼": 1376,
    "빽": 1377,
    "뺀": 1378,
    "뺄": 1379,
    "뺏": 1380,
    "뺐": 1381,
    "뻐": 1382,
    "뻑": 1383,
    "뻗": 1384,
    "뻥": 1385,
    "뻩": 1386,
    "뼈": 1387,
    "뼛": 1388,
    "뽀": 1389,
    "뽐": 1390,
    "뽑": 1391,
    "뽕": 1392,
    "뾰": 1393,
    "뿌": 1394,
    "뿐": 1395,
    "뿔": 1396,
    "뿜": 1397,
    "쁘": 1398,
    "쁜": 1399,
    "쁠": 1400,
    "쁨": 1401,
    "삐": 1402,
    "사": 1403,
    "삭": 1404,
    "산": 1405,
    "삳": 1406,
    "살": 1407,
    "삶": 1408,
    "삼": 1409,
    "삽": 1410,
    "삿": 1411,
    "샀": 1412,
    "상": 1413,
    "샅": 1414,
    "새": 1415,
    "색": 1416,
    "샌": 1417,
    "샐": 1418,
    "샘": 1419,
    "샛": 1420,
    "생": 1421,
    "샤": 1422,
    "샬": 1423,
    "샴": 1424,
    "샵": 1425,
    "샷": 1426,
    "샹": 1427,
    "섀": 1428,
    "서": 1429,
    "석": 1430,
    "섞": 1431,
    "선": 1432,
    "설": 1433,
    "섬": 1434,
    "섭": 1435,
    "섯": 1436,
    "섰": 1437,
    "성": 1438,
    "세": 1439,
    "섹": 1440,
    "센": 1441,
    "셀": 1442,
    "셈": 1443,
    "셉": 1444,
    "셋": 1445,
    "셔": 1446,
    "션": 1447,
    "셜": 1448,
    "셧": 1449,
    "셨": 1450,
    "셰": 1451,
    "셸": 1452,
    "소": 1453,
    "속": 1454,
    "손": 1455,
    "솔": 1456,
    "솜": 1457,
    "솟": 1458,
    "송": 1459,
    "솥": 1460,
    "쇄": 1461,
    "쇠": 1462,
    "쇼": 1463,
    "숍": 1464,
    "숏": 1465,
    "수": 1466,
    "숙": 1467,
    "순": 1468,
    "숟": 1469,
    "술": 1470,
    "숨": 1471,
    "숫": 1472,
    "숭": 1473,
    "숯": 1474,
    "숲": 1475,
    "쉐": 1476,
    "쉬": 1477,
    "쉰": 1478,
    "쉴": 1479,
    "쉼": 1480,
    "쉽": 1481,
    "슈": 1482,
    "슐": 1483,
    "슘": 1484,
    "슛": 1485,
    "스": 1486,
    "슨": 1487,
    "슬": 1488,
    "슴": 1489,
    "습": 1490,
    "슷": 1491,
    "승": 1492,
    "싀": 1493,
    "시": 1494,
    "식": 1495,
    "신": 1496,
    "실": 1497,
    "싫": 1498,
    "심": 1499,
    "십": 1500,
    "싱": 1501,
    "싶": 1502,
    "싸": 1503,
    "싹": 1504,
    "싼": 1505,
    "쌀": 1506,
    "쌈": 1507,
    "쌉": 1508,
    "쌍": 1509,
    "쌓": 1510,
    "써": 1511,
    "썩": 1512,
    "썬": 1513,
    "썰": 1514,
    "썸": 1515,
    "썹": 1516,
    "썼": 1517,
    "쎄": 1518,
    "쏘": 1519,
    "쏙": 1520,
    "쏜": 1521,
    "쏟": 1522,
    "쏠": 1523,
    "쏭": 1524,
    "쏴": 1525,
    "쐐": 1526,
    "쑤": 1527,
    "쑥": 1528,
    "쑨": 1529,
    "쓰": 1530,
    "쓴": 1531,
    "쓸": 1532,
    "씀": 1533,
    "씁": 1534,
    "씌": 1535,
    "씨": 1536,
    "씩": 1537,
    "씬": 1538,
    "씹": 1539,
    "씻": 1540,
    "씽": 1541,
    "아": 1542,
    "악": 1543,
    "안": 1544,
    "앉": 1545,
    "않": 1546,
    "알": 1547,
    "앓": 1548,
    "암": 1549,
    "압": 1550,
    "앗": 1551,
    "았": 1552,
    "앙": 1553,
    "앞": 1554,
    "애": 1555,
    "액": 1556,
    "앤": 1557,
    "앨": 1558,
    "앰": 1559,
    "앱": 1560,
    "앴": 1561,
    "앵": 1562,
    "야": 1563,
    "약": 1564,
    "얀": 1565,
    "얇": 1566,
    "얌": 1567,
    "얍": 1568,
    "양": 1569,
    "얕": 1570,
    "얗": 1571,
    "얘": 1572,
    "어": 1573,
    "억": 1574,
    "언": 1575,
    "얹": 1576,
    "얻": 1577,
    "얼": 1578,
    "얽": 1579,
    "엄": 1580,
    "업": 1581,
    "없": 1582,
    "엇": 1583,
    "었": 1584,
    "엉": 1585,
    "엊": 1586,
    "엌": 1587,
    "엎": 1588,
    "에": 1589,
    "엑": 1590,
    "엔": 1591,
    "엘": 1592,
    "엠": 1593,
    "엣": 1594,
    "여": 1595,
    "역": 1596,
    "엮": 1597,
    "연": 1598,
    "열": 1599,
    "엷": 1600,
    "염": 1601,
    "엽": 1602,
    "엿": 1603,
    "였": 1604,
    "영": 1605,
    "옅": 1606,
    "옆": 1607,
    "옇": 1608,
    "예": 1609,
    "옛": 1610,
    "오": 1611,
    "옥": 1612,
    "온": 1613,
    "올": 1614,
    "옮": 1615,
    "옳": 1616,
    "옴": 1617,
    "옵": 1618,
    "옷": 1619,
    "옹": 1620,
    "옻": 1621,
    "와": 1622,
    "왁": 1623,
    "완": 1624,
    "왈": 1625,
    "왑": 1626,
    "왓": 1627,
    "왔": 1628,
    "왕": 1629,
    "왜": 1630,
    "왠": 1631,
    "외": 1632,
    "왼": 1633,
    "요": 1634,
    "욕": 1635,
    "용": 1636,
    "우": 1637,
    "욱": 1638,
    "운": 1639,
    "울": 1640,
    "움": 1641,
    "웁": 1642,
    "웃": 1643,
    "웅": 1644,
    "워": 1645,
    "원": 1646,
    "월": 1647,
    "웜": 1648,
    "웠": 1649,
    "웨": 1650,
    "웬": 1651,
    "웰": 1652,
    "웹": 1653,
    "웻": 1654,
    "위": 1655,
    "윈": 1656,
    "윌": 1657,
    "윗": 1658,
    "윙": 1659,
    "유": 1660,
    "육": 1661,
    "윤": 1662,
    "율": 1663,
    "융": 1664,
    "으": 1665,
    "윽": 1666,
    "은": 1667,
    "을": 1668,
    "읊": 1669,
    "음": 1670,
    "읍": 1671,
    "응": 1672,
    "의": 1673,
    "이": 1674,
    "익": 1675,
    "인": 1676,
    "일": 1677,
    "읽": 1678,
    "잃": 1679,
    "임": 1680,
    "입": 1681,
    "잇": 1682,
    "있": 1683,
    "잉": 1684,
    "잊": 1685,
    "잌": 1686,
    "잎": 1687,
    "자": 1688,
    "작": 1689,
    "잔": 1690,
    "잖": 1691,
    "잗": 1692,
    "잘": 1693,
    "잠": 1694,
    "잡": 1695,
    "잣": 1696,
    "장": 1697,
    "잦": 1698,
    "재": 1699,
    "잭": 1700,
    "잴": 1701,
    "잼": 1702,
    "잿": 1703,
    "쟁": 1704,
    "쟝": 1705,
    "저": 1706,
    "적": 1707,
    "전": 1708,
    "절": 1709,
    "젊": 1710,
    "점": 1711,
    "접": 1712,
    "젓": 1713,
    "정": 1714,
    "젖": 1715,
    "제": 1716,
    "젝": 1717,
    "젠": 1718,
    "젤": 1719,
    "젬": 1720,
    "져": 1721,
    "졌": 1722,
    "조": 1723,
    "족": 1724,
    "존": 1725,
    "졸": 1726,
    "좀": 1727,
    "좁": 1728,
    "종": 1729,
    "좋": 1730,
    "좌": 1731,
    "죄": 1732,
    "죠": 1733,
    "죤": 1734,
    "주": 1735,
    "죽": 1736,
    "준": 1737,
    "줄": 1738,
    "줌": 1739,
    "줍": 1740,
    "줏": 1741,
    "중": 1742,
    "줘": 1743,
    "줬": 1744,
    "쥐": 1745,
    "쥘": 1746,
    "쥬": 1747,
    "쥴": 1748,
    "즈": 1749,
    "즉": 1750,
    "즌": 1751,
    "즐": 1752,
    "즘": 1753,
    "즙": 1754,
    "증": 1755,
    "지": 1756,
    "직": 1757,
    "진": 1758,
    "짇": 1759,
    "질": 1760,
    "짊": 1761,
    "짐": 1762,
    "집": 1763,
    "짓": 1764,
    "징": 1765,
    "짖": 1766,
    "짙": 1767,
    "짚": 1768,
    "짜": 1769,
    "짝": 1770,
    "짠": 1771,
    "짤": 1772,
    "짧": 1773,
    "짭": 1774,
    "짱": 1775,
    "째": 1776,
    "쨌": 1777,
    "쩌": 1778,
    "쩍": 1779,
    "쩔": 1780,
    "쪄": 1781,
    "쪼": 1782,
    "쪽": 1783,
    "쫀": 1784,
    "쫄": 1785,
    "쫒": 1786,
    "쫓": 1787,
    "쫙": 1788,
    "쬐": 1789,
    "쭈": 1790,
    "쭉": 1791,
    "쭤": 1792,
    "쯔": 1793,
    "쯤": 1794,
    "쯧": 1795,
    "쯩": 1796,
    "찌": 1797,
    "찍": 1798,
    "찐": 1799,
    "찔": 1800,
    "찜": 1801,
    "찡": 1802,
    "찢": 1803,
    "찧": 1804,
    "차": 1805,
    "착": 1806,
    "찬": 1807,
    "찮": 1808,
    "찰": 1809,
    "참": 1810,
    "찹": 1811,
    "찻": 1812,
    "창": 1813,
    "찾": 1814,
    "채": 1815,
    "책": 1816,
    "챔": 1817,
    "챗": 1818,
    "챙": 1819,
    "챠": 1820,
    "처": 1821,
    "척": 1822,
    "천": 1823,
    "철": 1824,
    "첨": 1825,
    "첩": 1826,
    "첫": 1827,
    "청": 1828,
    "체": 1829,
    "첸": 1830,
    "첼": 1831,
    "쳐": 1832,
    "쳣": 1833,
    "쳤": 1834,
    "초": 1835,
    "촉": 1836,
    "촌": 1837,
    "촘": 1838,
    "촛": 1839,
    "총": 1840,
    "촬": 1841,
    "최": 1842,
    "쵸": 1843,
    "추": 1844,
    "축": 1845,
    "춘": 1846,
    "출": 1847,
    "춤": 1848,
    "춥": 1849,
    "춧": 1850,
    "충": 1851,
    "춰": 1852,
    "췄": 1853,
    "췌": 1854,
    "취": 1855,
    "츄": 1856,
    "츠": 1857,
    "측": 1858,
    "츰": 1859,
    "층": 1860,
    "치": 1861,
    "칙": 1862,
    "친": 1863,
    "칠": 1864,
    "칡": 1865,
    "침": 1866,
    "칩": 1867,
    "칫": 1868,
    "칭": 1869,
    "카": 1870,
    "칵": 1871,
    "칸": 1872,
    "칼": 1873,
    "캄": 1874,
    "캅": 1875,
    "캉": 1876,
    "캐": 1877,
    "캔": 1878,
    "캘": 1879,
    "캠": 1880,
    "캡": 1881,
    "캥": 1882,
    "커": 1883,
    "컥": 1884,
    "컨": 1885,
    "컫": 1886,
    "컬": 1887,
    "컴": 1888,
    "컵": 1889,
    "컷": 1890,
    "컸": 1891,
    "컹": 1892,
    "케": 1893,
    "켄": 1894,
    "켈": 1895,
    "켓": 1896,
    "켜": 1897,
    "켠": 1898,
    "켤": 1899,
    "켰": 1900,
    "코": 1901,
    "콕": 1902,
    "콘": 1903,
    "콜": 1904,
    "콤": 1905,
    "콥": 1906,
    "콧": 1907,
    "콩": 1908,
    "콰": 1909,
    "쾅": 1910,
    "쾌": 1911,
    "쾨": 1912,
    "쾰": 1913,
    "쿄": 1914,
    "쿠": 1915,
    "쿡": 1916,
    "쿤": 1917,
    "쿨": 1918,
    "쿵": 1919,
    "쿼": 1920,
    "퀀": 1921,
    "퀄": 1922,
    "퀴": 1923,
    "퀵": 1924,
    "퀸": 1925,
    "퀼": 1926,
    "큐": 1927,
    "큘": 1928,
    "크": 1929,
    "큰": 1930,
    "클": 1931,
    "큼": 1932,
    "큽": 1933,
    "키": 1934,
    "킥": 1935,
    "킨": 1936,
    "킬": 1937,
    "킴": 1938,
    "킵": 1939,
    "킷": 1940,
    "킹": 1941,
    "타": 1942,
    "탁": 1943,
    "탄": 1944,
    "탈": 1945,
    "탉": 1946,
    "탐": 1947,
    "탑": 1948,
    "탓": 1949,
    "탔": 1950,
    "탕": 1951,
    "태": 1952,
    "택": 1953,
    "탠": 1954,
    "탤": 1955,
    "탭": 1956,
    "탯": 1957,
    "탱": 1958,
    "터": 1959,
    "턱": 1960,
    "턴": 1961,
    "털": 1962,
    "텀": 1963,
    "텅": 1964,
    "테": 1965,
    "텍": 1966,
    "텐": 1967,
    "텔": 1968,
    "템": 1969,
    "텝": 1970,
    "텟": 1971,
    "텨": 1972,
    "토": 1973,
    "톡": 1974,
    "톤": 1975,
    "톨": 1976,
    "톰": 1977,
    "톱": 1978,
    "통": 1979,
    "퇴": 1980,
    "투": 1981,
    "툭": 1982,
    "툰": 1983,
    "툴": 1984,
    "툼": 1985,
    "퉁": 1986,
    "튀": 1987,
    "튄": 1988,
    "튐": 1989,
    "튕": 1990,
    "튜": 1991,
    "튬": 1992,
    "트": 1993,
    "특": 1994,
    "튼": 1995,
    "틀": 1996,
    "틈": 1997,
    "틋": 1998,
    "틔": 1999,
    "티": 2000,
    "틱": 2001,
    "틴": 2002,
    "틸": 2003,
    "팀": 2004,
    "팁": 2005,
    "팅": 2006,
    "파": 2007,
    "판": 2008,
    "팔": 2009,
    "팜": 2010,
    "팝": 2011,
    "팡": 2012,
    "팥": 2013,
    "패": 2014,
    "팩": 2015,
    "팬": 2016,
    "팸": 2017,
    "팽": 2018,
    "퍼": 2019,
    "퍽": 2020,
    "펀": 2021,
    "펄": 2022,
    "펌": 2023,
    "펍": 2024,
    "펑": 2025,
    "페": 2026,
    "펙": 2027,
    "펜": 2028,
    "펠": 2029,
    "펫": 2030,
    "펭": 2031,
    "펴": 2032,
    "편": 2033,
    "펼": 2034,
    "폄": 2035,
    "폈": 2036,
    "평": 2037,
    "폐": 2038,
    "포": 2039,
    "폭": 2040,
    "폰": 2041,
    "폴": 2042,
    "폼": 2043,
    "퐁": 2044,
    "표": 2045,
    "푯": 2046,
    "푸": 2047,
    "푹": 2048,
    "푼": 2049,
    "풀": 2050,
    "품": 2051,
    "풋": 2052,
    "풍": 2053,
    "퓨": 2054,
    "퓸": 2055,
    "프": 2056,
    "픈": 2057,
    "플": 2058,
    "픔": 2059,
    "픕": 2060,
    "피": 2061,
    "픽": 2062,
    "핀": 2063,
    "필": 2064,
    "핍": 2065,
    "핏": 2066,
    "핑": 2067,
    "하": 2068,
    "학": 2069,
    "한": 2070,
    "할": 2071,
    "핥": 2072,
    "함": 2073,
    "합": 2074,
    "핫": 2075,
    "항": 2076,
    "해": 2077,
    "핵": 2078,
    "핸": 2079,
    "핼": 2080,
    "햄": 2081,
    "햇": 2082,
    "했": 2083,
    "행": 2084,
    "향": 2085,
    "허": 2086,
    "헌": 2087,
    "헐": 2088,
    "험": 2089,
    "헛": 2090,
    "헝": 2091,
    "헤": 2092,
    "헨": 2093,
    "헬": 2094,
    "헴": 2095,
    "헷": 2096,
    "헹": 2097,
    "혀": 2098,
    "혁": 2099,
    "현": 2100,
    "혈": 2101,
    "혐": 2102,
    "협": 2103,
    "혔": 2104,
    "형": 2105,
    "혜": 2106,
    "호": 2107,
    "혹": 2108,
    "혼": 2109,
    "홀": 2110,
    "홈": 2111,
    "홉": 2112,
    "홍": 2113,
    "화": 2114,
    "확": 2115,
    "환": 2116,
    "활": 2117,
    "황": 2118,
    "횃": 2119,
    "회": 2120,
    "획": 2121,
    "횟": 2122,
    "횡": 2123,
    "효": 2124,
    "후": 2125,
    "훈": 2126,
    "훌": 2127,
    "훑": 2128,
    "훔": 2129,
    "훗": 2130,
    "훨": 2131,
    "훼": 2132,
    "휀": 2133,
    "휘": 2134,
    "휙": 2135,
    "휜": 2136,
    "휠": 2137,
    "휨": 2138,
    "휩": 2139,
    "휴": 2140,
    "휼": 2141,
    "흄": 2142,
    "흉": 2143,
    "흐": 2144,
    "흑": 2145,
    "흔": 2146,
    "흘": 2147,
    "흙": 2148,
    "흠": 2149,
    "흡": 2150,
    "흥": 2151,
    "흩": 2152,
    "희": 2153,
    "흰": 2154,
    "히": 2155,
    "힌": 2156,
    "힐": 2157,
    "힘": 2158,
    "힙": 2159,
    "金": 2160,
    "蘭": 2161,
    "樂": 2162,
    "不": 2163,
    "年": 2164,
    "廉": 2165,
    "禮": 2166,
    "類": 2167,
    "茶": 2168,
    "）": 2169,
    "는</w>": 2170,
    ".</w>": 2171,
    "다.</w>": 2172,
    "니다.</w>": 2173,
    ",</w>": 2174,
    "이</w>": 2175,
    "을</w>": 2176,
    "의</w>": 2177,
    "은</w>": 2178,
    "로</w>": 2179,
    "에</w>": 2180,
    "를</w>": 2181,
    "가</w>": 2182,
    "서</w>": 2183,
    "습니다.</w>": 2184,
    "한</w>": 2185,
    "고</w>": 2186,
    "?</w>": 2187,
    "으로</w>": 2188,
    "에서</w>": 2189,
    "도</w>": 2190,
    "요?</w>": 2191,
    "게</w>": 2192,
    "합니다.</w>": 2193,
    "기</w>": 2194,
    "있습니다.</w>": 2195,
    "입니다.</w>": 2196,
    "지</w>": 2197,
    "수</w>": 2198,
    "하는</w>": 2199,
    "과</w>": 2200,
    "와</w>": 2201,
    "나</w>": 2202,
    "면</w>": 2203,
    "사용": 2204,
    "해</w>": 2205,
    "인</w>": 2206,
    "며,</w>": 2207,
    "할</w>": 2208,
    "따라": 2209,
    "어</w>": 2210,
    "때문": 2211,
    "가요?</w>": 2212,
    "됩니다.</w>": 2213,
    "지만": 2214,
    "경우": 2215,
    "에서": 2216,
    "까요?</w>": 2217,
    "있는</w>": 2218,
    "에는</w>": 2219,
    "인가요?</w>": 2220,
    "무엇": 2221,
    "이유": 2222,
    "-</w>": 2223,
    "고,</w>": 2224,
    "여</w>": 2225,
    "적인</w>": 2226,
    "것이</w>": 2227,
    "는데": 2228,
    "된</w>": 2229,
    "하여</w>": 2230,
    ":</w>": 2231,
    "이는</w>": 2232,
    "라는</w>": 2233,
    "적으로</w>": 2234,
    "에서는</w>": 2235,
    "하게</w>": 2236,
    "른</w>": 2237,
    "야</w>": 2238,
    "때문에</w>": 2239,
    "으로": 2240,
    "지만,</w>": 2241,
    "때</w>": 2242,
    "리</w>": 2243,
    "하고</w>": 2244,
    "이러": 2245,
    "들어": 2246,
    "이나</w>": 2247,
    "이러한</w>": 2248,
    "나요?</w>": 2249,
    "하기</w>": 2250,
    "무엇인가요?</w>": 2251,
    "들이</w>": 2252,
    "다</w>": 2253,
    "다는</w>": 2254,
    "는데,</w>": 2255,
    "되어</w>": 2256,
    "그</w>": 2257,
    "되는</w>": 2258,
    "것입니다.</w>": 2259,
    "으며,</w>": 2260,
    "방법": 2261,
    "따라서</w>": 2262,
    "것은</w>": 2263,
    "다른</w>": 2264,
    "왜</w>": 2265,
    "어떤": 2266,
    "같은</w>": 2267,
    "어떤</w>": 2268,
    "지만</w>": 2269,
    "운</w>": 2270,
    "사람": 2271,
    "더</w>": 2272,
    "히</w>": 2273,
    "장</w>": 2274,
    "되었": 2275,
    "00": 2276,
    "이유는</w>": 2277,
    "의미": 2278,
    "시</w>": 2279,
    "따라</w>": 2280,
    "일반": 2281,
    "요.</w>": 2282,
    "가능": 2283,
    "면서</w>": 2284,
    "일</w>": 2285,
    "하지</w>": 2286,
    "아</w>": 2287,
    "들은</w>": 2288,
    "서,</w>": 2289,
    "궁금": 2290,
    "그러": 2291,
    "리는</w>": 2292,
    "라</w>": 2293,
    "터</w>": 2294,
    "이를</w>": 2295,
    "한,</w>": 2296,
    "만</w>": 2297,
    "또한,</w>": 2298,
    "그리": 2299,
    "을까요?</w>": 2300,
    "며</w>": 2301,
    "위해</w>": 2302,
    "기가</w>": 2303,
    "기를</w>": 2304,
    "진</w>": 2305,
    "지는</w>": 2306,
    "발생": 2307,
    "아니": 2308,
    "라고</w>": 2309,
    "기는</w>": 2310,
    "면,</w>": 2311,
    "하면</w>": 2312,
    "가지": 2313,
    "부분": 2314,
    "등</w>": 2315,
    "때문입니다.</w>": 2316,
    "중</w>": 2317,
    "필요": 2318,
    "적</w>": 2319,
    "궁금합니다.</w>": 2320,
    "두</w>": 2321,
    "그리고</w>": 2322,
    "로,</w>": 2323,
    "것을</w>": 2324,
    "하지만</w>": 2325,
    "해야</w>": 2326,
    "차이": 2327,
    "어떻": 2328,
    "록</w>": 2329,
    "후</w>": 2330,
    "간</w>": 2331,
    "져</w>": 2332,
    "대한</w>": 2333,
    ")</w>": 2334,
    "이름": 2335,
    "에도</w>": 2336,
    "이며,</w>": 2337,
    "어떻게</w>": 2338,
    "리를</w>": 2339,
    "든</w>": 2340,
    "경우</w>": 2341,
    "상</w>": 2342,
    "가장</w>": 2343,
    "해서</w>": 2344,
    "나타": 2345,
    "많이</w>": 2346,
    "따라서,</w>": 2347,
    "거나</w>": 2348,
    "세요.</w>": 2349,
    "다고</w>": 2350,
    "하며,</w>": 2351,
    "부터</w>": 2352,
    "으면</w>": 2353,
    "일까요?</w>": 2354,
    "다양": 2355,
    "좋습니다.</w>": 2356,
    "으로,</w>": 2357,
    "보다</w>": 2358,
    "자</w>": 2359,
    "물이</w>": 2360,
    "리가</w>": 2361,
    "그러나</w>": 2362,
    "년</w>": 2363,
    "함께": 2364,
    "한국": 2365,
    "물을</w>": 2366,
    "스</w>": 2367,
    "나라": 2368,
    "도가</w>": 2369,
    "이라는</w>": 2370,
    "않습니다.</w>": 2371,
    "란</w>": 2372,
    "이용": 2373,
    "되었습니다.</w>": 2374,
    "있으며,</w>": 2375,
    "함께</w>": 2376,
    "만들": 2377,
    "부</w>": 2378,
    "성이</w>": 2379,
    "므로</w>": 2380,
    "러</w>": 2381,
    "전</w>": 2382,
    "물</w>": 2383,
    "대</w>": 2384,
    "많은</w>": 2385,
    "등의</w>": 2386,
    "어서</w>": 2387,
    "제</w>": 2388,
    "에게</w>": 2389,
    "주</w>": 2390,
    "현상": 2391,
    "던</w>": 2392,
    "만들어": 2393,
    "하나": 2394,
    "통해</w>": 2395,
    "지역": 2396,
    "알려": 2397,
    "에서도</w>": 2398,
    "약</w>": 2399,
    "등이</w>": 2400,
    "도록</w>": 2401,
    "주세요.</w>": 2402,
    "성</w>": 2403,
    "표현": 2404,
    "잘</w>": 2405,
    "질</w>": 2406,
    "19": 2407,
    "시간": 2408,
    "기도</w>": 2409,
    "들의</w>": 2410,
    "상태": 2411,
    "인해</w>": 2412,
    "다양한</w>": 2413,
    "효과": 2414,
    "우리": 2415,
    "자가</w>": 2416,
    "다면</w>": 2417,
    "사용하는</w>": 2418,
    "해당": 2419,
    "않는</w>": 2420,
    "해서": 2421,
    "10": 2422,
    "시작": 2423,
    "세계": 2424,
    "큰</w>": 2425,
    "없습니다.</w>": 2426,
    "안</w>": 2427,
    "각</w>": 2428,
    "하고,</w>": 2429,
    "볼</w>": 2430,
    "종류": 2431,
    "국</w>": 2432,
    "이에</w>": 2433,
    "있을까요?</w>": 2434,
    "등을</w>": 2435,
    "하지만,</w>": 2436,
    "주는</w>": 2437,
    "까지</w>": 2438,
    "문제": 2439,
    "될</w>": 2440,
    "있었": 2441,
    "위치": 2442,
    "모양": 2443,
    "우</w>": 2444,
    "나오": 2445,
    "일본": 2446,
    "도를</w>": 2447,
    "영화": 2448,
    "가지고</w>": 2449,
    "이상": 2450,
    "중요": 2451,
    "방식": 2452,
    "여러</w>": 2453,
    "정</w>": 2454,
    "것으로</w>": 2455,
    "현재": 2456,
    "이라고</w>": 2457,
    "용</w>": 2458,
    "또한</w>": 2459,
    "있나요?</w>": 2460,
    "스트": 2461,
    "에,</w>": 2462,
    "가지</w>": 2463,
    "in": 2464,
    "는지</w>": 2465,
    "과정": 2466,
    "집니다.</w>": 2467,
    "er": 2468,
    "대해</w>": 2469,
    "경우가</w>": 2470,
    "지를</w>": 2471,
    "드</w>": 2472,
    "나무": 2473,
    "나,</w>": 2474,
    "사</w>": 2475,
    "는데</w>": 2476,
    "했습니다.</w>": 2477,
    "영향": 2478,
    "경우,</w>": 2479,
    "설명": 2480,
    "들을</w>": 2481,
    "역할": 2482,
    "기의</w>": 2483,
    "일반적으로</w>": 2484,
    "월</w>": 2485,
    "정보": 2486,
    "존재": 2487,
    "력이</w>": 2488,
    "지하": 2489,
    "모든</w>": 2490,
    "또는</w>": 2491,
    "이루": 2492,
    "알고</w>": 2493,
    "이기</w>": 2494,
    "색</w>": 2495,
    "국가": 2496,
    "으로는</w>": 2497,
    "정확": 2498,
    "an": 2499,
    "되지</w>": 2500,
    "매우</w>": 2501,
    "내는</w>": 2502,
    "예를</w>": 2503,
    "있기</w>": 2504,
    "지구": 2505,
    "신</w>": 2506,
    "나는</w>": 2507,
    "위한</w>": 2508,
    "20": 2509,
    "기에</w>": 2510,
    "및</w>": 2511,
    "유래": 2512,
    "지방": 2513,
    "정도": 2514,
    "드는</w>": 2515,
    "때문에,</w>": 2516,
    "용어": 2517,
    "있으": 2518,
    "일어": 2519,
    "때,</w>": 2520,
    "로는</w>": 2521,
    "관련": 2522,
    "자를</w>": 2523,
    "식</w>": 2524,
    "무엇일까요?</w>": 2525,
    "기술": 2526,
    "건가요?</w>": 2527,
    "통</w>": 2528,
    "시키": 2529,
    "대부분": 2530,
    "자는</w>": 2531,
    "이유가</w>": 2532,
    "르게</w>": 2533,
    "해당</w>": 2534,
    "자신": 2535,
    "해서는</w>": 2536,
    "하면서</w>": 2537,
    "처럼": 2538,
    "래</w>": 2539,
    "높은</w>": 2540,
    "'</w>": 2541,
    "구분": 2542,
    "'는</w>": 2543,
    "있을</w>": 2544,
    "제품": 2545,
    "사이": 2546,
    "모두</w>": 2547,
    "없는</w>": 2548,
    "이가</w>": 2549,
    "단어": 2550,
    "제거": 2551,
    "것</w>": 2552,
    "때는</w>": 2553,
    "린</w>": 2554,
    "e</w>": 2555,
    "대로</w>": 2556,
    "상황": 2557,
    "소</w>": 2558,
    "되며,</w>": 2559,
    "/</w>": 2560,
    "개</w>": 2561,
    "동물": 2562,
    "같이</w>": 2563,
    "차이가</w>": 2564,
    "자세": 2565,
    "포함": 2566,
    "유지": 2567,
    "형태": 2568,
    "처럼</w>": 2569,
    "음</w>": 2570,
    "트</w>": 2571,
    "되고</w>": 2572,
    "있지만,</w>": 2573,
    "생각": 2574,
    "르는</w>": 2575,
    "아니라</w>": 2576,
    "이루어": 2577,
    "난</w>": 2578,
    "성분": 2579,
    "싶습니다.</w>": 2580,
    "력을</w>": 2581,
    "기준": 2582,
    "성을</w>": 2583,
    "아서</w>": 2584,
    "물에</w>": 2585,
    "런</w>": 2586,
    "선택": 2587,
    "이어": 2588,
    "물질": 2589,
    "사진": 2590,
    "사용됩니다.</w>": 2591,
    "경우에는</w>": 2592,
    "움직": 2593,
    "실제": 2594,
    "긴</w>": 2595,
    "하였": 2596,
    "기와</w>": 2597,
    "전에</w>": 2598,
    "차이점": 2599,
    "건강": 2600,
    "선</w>": 2601,
    "영향을</w>": 2602,
    "변화": 2603,
    "역할을</w>": 2604,
    "산</w>": 2605,
    "주로</w>": 2606,
    "인지</w>": 2607,
    "데,</w>": 2608,
    "al": 2609,
    "음식": 2610,
    "그래": 2611,
    "대표": 2612,
    "기능": 2613,
    "데</w>": 2614,
    "사용되는</w>": 2615,
    "날</w>": 2616,
    "형</w>": 2617,
    "ar": 2618,
    "그렇": 2619,
    "있는데,</w>": 2620,
    "문화": 2621,
    "므로,</w>": 2622,
    "내용": 2623,
    "울</w>": 2624,
    "원</w>": 2625,
    "이야": 2626,
    "중국": 2627,
    "가는</w>": 2628,
    "걸까요?</w>": 2629,
    "체</w>": 2630,
    "할까요?</w>": 2631,
    "작용": 2632,
    "수가</w>": 2633,
    "가능합니다.</w>": 2634,
    "),</w>": 2635,
    "온</w>": 2636,
    "있어</w>": 2637,
    "마다</w>": 2638,
    "차</w>": 2639,
    "on": 2640,
    "려</w>": 2641,
    "개의</w>": 2642,
    "사를</w>": 2643,
    "인이</w>": 2644,
    "이란</w>": 2645,
    "m</w>": 2646,
    "음악": 2647,
    "이와</w>": 2648,
    "확인": 2649,
    "아닌": 2650,
    "미국": 2651,
    "아지": 2652,
    "이었": 2653,
    "자의</w>": 2654,
    "떨어": 2655,
    "도는</w>": 2656,
    "15": 2657,
    "다시</w>": 2658,
    "속</w>": 2659,
    "서로</w>": 2660,
    "결정": 2661,
    "번호": 2662,
    "위해서는</w>": 2663,
    "필요합니다.</w>": 2664,
    "물의</w>": 2665,
    "더욱": 2666,
    "나오는</w>": 2667,
    "이해": 2668,
    "구조": 2669,
    "수는</w>": 2670,
    "하시": 2671,
    "경우도</w>": 2672,
    "조금": 2673,
    "레이": 2674,
    "수를</w>": 2675,
    "어디": 2676,
    "더욱</w>": 2677,
    "물은</w>": 2678,
    "무</w>": 2679,
    "'은</w>": 2680,
    "아이": 2681,
    "위에</w>": 2682,
    "방법은</w>": 2683,
    "조선": 2684,
    "일부</w>": 2685,
    "en": 2686,
    "비슷": 2687,
    "냄새": 2688,
    "알려주세요.</w>": 2689,
    "어야</w>": 2690,
    "릅니다.</w>": 2691,
    "자동": 2692,
    "분</w>": 2693,
    "라이": 2694,
    "내부": 2695,
    "들</w>": 2696,
    "000": 2697,
    "사람이</w>": 2698,
    "위를</w>": 2699,
    "정한</w>": 2700,
    "\"</w>": 2701,
    "상을</w>": 2702,
    "화</w>": 2703,
    "사용할</w>": 2704,
    "의해</w>": 2705,
    "로운</w>": 2706,
    "구성": 2707,
    "이유로</w>": 2708,
    "or": 2709,
    "스를</w>": 2710,
    "졌습니다.</w>": 2711,
    "좋은</w>": 2712,
    "작은</w>": 2713,
    "쉽게</w>": 2714,
    "이미": 2715,
    "들어,</w>": 2716,
    "하며</w>": 2717,
    "구</w>": 2718,
    "1.</w>": 2719,
    "사용합니다.</w>": 2720,
    "수도</w>": 2721,
    "문</w>": 2722,
    "만든</w>": 2723,
    "특징": 2724,
    "보통</w>": 2725,
    "위</w>": 2726,
    "제가</w>": 2727,
    "같습니다.</w>": 2728,
    "하는데,</w>": 2729,
    "우리나라": 2730,
    "바람": 2731,
    "장을</w>": 2732,
    "어렵": 2733,
    "결과": 2734,
    "되나요?</w>": 2735,
    "사는</w>": 2736,
    "환경": 2737,
    "보관": 2738,
    "줍니다.</w>": 2739,
    "종</w>": 2740,
    "동안</w>": 2741,
    "다가</w>": 2742,
    "'라는</w>": 2743,
    "간의</w>": 2744,
    "많습니다.</w>": 2745,
    "우리</w>": 2746,
    "의미를</w>": 2747,
    "at": 2748,
    "방향": 2749,
    "다면,</w>": 2750,
    "지지</w>": 2751,
    "상이</w>": 2752,
    "몇</w>": 2753,
    "2.</w>": 2754,
    "시대": 2755,
    "자주</w>": 2756,
    "실제로</w>": 2757,
    "방법이</w>": 2758,
    "운동": 2759,
    "비</w>": 2760,
    "씩</w>": 2761,
    "위험": 2762,
    "았습니다.</w>": 2763,
    "가루": 2764,
    "도로</w>": 2765,
    "기름": 2766,
    "보이": 2767,
    "제공": 2768,
    "구멍": 2769,
    "참고": 2770,
    "어려": 2771,
    "조절": 2772,
    "렇게</w>": 2773,
    "문제가</w>": 2774,
    "현재</w>": 2775,
    "정도</w>": 2776,
    "세</w>": 2777,
    "기록": 2778,
    "필요한</w>": 2779,
    "30": 2780,
    "보면</w>": 2781,
    "지,</w>": 2782,
    "고려": 2783,
    "길</w>": 2784,
    "모습": 2785,
    "만드는</w>": 2786,
    "이동": 2787,
    "니</w>": 2788,
    "보다는</w>": 2789,
    "상대": 2790,
    "력</w>": 2791,
    "되면</w>": 2792,
    "내</w>": 2793,
    "차이는</w>": 2794,
    "나라</w>": 2795,
    "리카": 2796,
    "보호": 2797,
    "12": 2798,
    "정확한</w>": 2799,
    "가능성이</w>": 2800,
    "성은</w>": 2801,
    "발음": 2802,
    "제작": 2803,
    "치는</w>": 2804,
    "다음": 2805,
    "이것은</w>": 2806,
    "가격": 2807,
    "반면,</w>": 2808,
    "유명": 2809,
    "일을</w>": 2810,
    "있어서</w>": 2811,
    "다르": 2812,
    "바퀴": 2813,
    "점이</w>": 2814,
    "></w>": 2815,
    "비가</w>": 2816,
    "있었습니다.</w>": 2817,
    "되기</w>": 2818,
    "실</w>": 2819,
    "과는</w>": 2820,
    "18": 2821,
    "달라": 2822,
    "프로": 2823,
    "커피": 2824,
    "닙니다.</w>": 2825,
    "작품": 2826,
    "답변": 2827,
    "최근": 2828,
    "생산": 2829,
    "스크": 2830,
    "중심": 2831,
    "프랑": 2832,
    "저</w>": 2833,
    "말합니다.</w>": 2834,
    "이렇게</w>": 2835,
    "않은</w>": 2836,
    "어느": 2837,
    "우유": 2838,
    "기관": 2839,
    "거의</w>": 2840,
    "먹는</w>": 2841,
    "반응": 2842,
    "방법을</w>": 2843,
    "시간</w>": 2844,
    "체가</w>": 2845,
    "시켜": 2846,
    "진행": 2847,
    "것도</w>": 2848,
    "ic": 2849,
    "장이</w>": 2850,
    "중요한</w>": 2851,
    "안전": 2852,
    "만약</w>": 2853,
    "재료": 2854,
    "지가</w>": 2855,
    "om": 2856,
    "발생하는</w>": 2857,
    "조</w>": 2858,
    "전자": 2859,
    "들어</w>": 2860,
    "도움": 2861,
    "판매": 2862,
    "벌레": 2863,
    "자연": 2864,
    "설탕": 2865,
    "직접": 2866,
    "100": 2867,
    "있다는</w>": 2868,
    "의미합니다.</w>": 2869,
    "적절": 2870,
    "있고,</w>": 2871,
    "전기": 2872,
    "릴</w>": 2873,
    "라도</w>": 2874,
    "고양": 2875,
    "예방": 2876,
    "외에도</w>": 2877,
    "이런</w>": 2878,
    "수록</w>": 2879,
    "\"는</w>": 2880,
    "계란": 2881,
    "측정": 2882,
    "않고</w>": 2883,
    "3.</w>": 2884,
    "아닙니다.</w>": 2885,
    "역사": 2886,
    "치료": 2887,
    "선을</w>": 2888,
    "은행": 2889,
    "st": 2890,
    "번째": 2891,
    "자신의</w>": 2892,
    "그림": 2893,
    "하나요?</w>": 2894,
    "온도": 2895,
    "너무</w>": 2896,
    "본</w>": 2897,
    "색깔": 2898,
    "만들</w>": 2899,
    "립니다.</w>": 2900,
    "가진</w>": 2901,
    "이후</w>": 2902,
    "50": 2903,
    "생기": 2904,
    "표시": 2905,
    "새로운</w>": 2906,
    "행동": 2907,
    "자세히</w>": 2908,
    "없이</w>": 2909,
    "리에</w>": 2910,
    "작업": 2911,
    "태양": 2912,
    "해도</w>": 2913,
    "올</w>": 2914,
    "과정에서</w>": 2915,
    "어도</w>": 2916,
    "수분": 2917,
    "형성": 2918,
    "이고,</w>": 2919,
    "안에</w>": 2920,
    "체의</w>": 2921,
    "인공": 2922,
    "어느</w>": 2923,
    "일이</w>": 2924,
    "어,</w>": 2925,
    "이상</w>": 2926,
    "일반적": 2927,
    "해주세요.</w>": 2928,
    "다'": 2929,
    "관계": 2930,
    "게임": 2931,
    "불리": 2932,
    "지막": 2933,
    "면에</w>": 2934,
    "뿐만</w>": 2935,
    "디자": 2936,
    "등장": 2937,
    "개념": 2938,
    "추가": 2939,
    "그래서</w>": 2940,
    "등에</w>": 2941,
    "인터": 2942,
    "자와</w>": 2943,
    "오는</w>": 2944,
    "마지막": 2945,
    "질이</w>": 2946,
    "즉,</w>": 2947,
    "중요합니다.</w>": 2948,
    "일반적인</w>": 2949,
    "차량": 2950,
    "물고": 2951,
    "케이": 2952,
    "하거나</w>": 2953,
    "리,</w>": 2954,
    "거나,</w>": 2955,
    "리의</w>": 2956,
    "중에</w>": 2957,
    "'을</w>": 2958,
    "영어": 2959,
    "있다.</w>": 2960,
    "사용하여</w>": 2961,
    "사실": 2962,
    "정보를</w>": 2963,
    "연결": 2964,
    "스타": 2965,
    "이로</w>": 2966,
    "렌즈": 2967,
    "지의</w>": 2968,
    "설치": 2969,
    "생활": 2970,
    "터를</w>": 2971,
    "주변": 2972,
    "발전": 2973,
    "분야": 2974,
    "에서의</w>": 2975,
    "시간이</w>": 2976,
    "쪽</w>": 2977,
    "알려져</w>": 2978,
    "맛이</w>": 2979,
    "일반</w>": 2980,
    "기,</w>": 2981,
    "대회": 2982,
    "바다": 2983,
    "요소": 2984,
    "다릅니다.</w>": 2985,
    "면을</w>": 2986,
    "대부분</w>": 2987,
    "도,</w>": 2988,
    "철</w>": 2989,
    "보이는</w>": 2990,
    "해지": 2991,
    "권</w>": 2992,
    "단위": 2993,
    "있도록</w>": 2994,
    "소금": 2995,
    "대표적인</w>": 2996,
    "주의": 2997,
    "회전": 2998,
    "치를</w>": 2999
  },
  "merges": [
    [
      "는",
      "</w>"
    ],
    [
      ".",
      "</w>"
    ],
    [
      "다",
      ".</w>"
    ],
    [
      "니",
      "다.</w>"
    ],
    [
      ",",
      "</w>"
    ],
    [
      "이",
      "</w>"
    ],
    [
      "을",
      "</w>"
    ],
    [
      "의",
      "</w>"
    ],
    [
      "은",
      "</w>"
    ],
    [
      "로",
      "</w>"
    ],
    [
      "에",
      "</w>"
    ],
    [
      "를",
      "</w>"
    ],
    [
      "가",
      "</w>"
    ],
    [
      "서",
      "</w>"
    ],
    [
      "습",
      "니다.</w>"
    ],
    [
      "한",
      "</w>"
    ],
    [
      "고",
      "</w>"
    ],
    [
      "?",
      "</w>"
    ],
    [
      "으",
      "로</w>"
    ],
    [
      "에",
      "서</w>"
    ],
    [
      "도",
      "</w>"
    ],
    [
      "요",
      "?</w>"
    ],
    [
      "게",
      "</w>"
    ],
    [
      "합",
      "니다.</w>"
    ],
    [
      "기",
      "</w>"
    ],
    [
      "있",
      "습니다.</w>"
    ],
    [
      "입",
      "니다.</w>"
    ],
    [
      "지",
      "</w>"
    ],
    [
      "수",
      "</w>"
    ],
    [
      "하",
      "는</w>"
    ],
    [
      "과",
      "</w>"
    ],
    [
      "와",
      "</w>"
    ],
    [
      "나",
      "</w>"
    ],
    [
      "면",
      "</w>"
    ],
    [
      "사",
      "용"
    ],
    [
      "해",
      "</w>"
    ],
    [
      "인",
      "</w>"
    ],
    [
      "며",
      ",</w>"
    ],
    [
      "할",
      "</w>"
    ],
    [
      "따",
      "라"
    ],
    [
      "어",
      "</w>"
    ],
    [
      "때",
      "문"
    ],
    [
      "가",
      "요?</w>"
    ],
    [
      "됩",
      "니다.</w>"
    ],
    [
      "지",
      "만"
    ],
    [
      "경",
      "우"
    ],
    [
      "에",
      "서"
    ],
    [
      "까",
      "요?</w>"
    ],
    [
      "있",
      "는</w>"
    ],
    [
      "에",
      "는</w>"
    ],
    [
      "인",
      "가요?</w>"
    ],
    [
      "무",
      "엇"
    ],
    [
      "이",
      "유"
    ],
    [
      "-",
      "</w>"
    ],
    [
      "고",
      ",</w>"
    ],
    [
      "여",
      "</w>"
    ],
    [
      "적",
      "인</w>"
    ],
    [
      "것",
      "이</w>"
    ],
    [
      "는",
      "데"
    ],
    [
      "된",
      "</w>"
    ],
    [
      "하",
      "여</w>"
    ],
    [
      ":",
      "</w>"
    ],
    [
      "이",
      "는</w>"
    ],
    [
      "라",
      "는</w>"
    ],
    [
      "적",
      "으로</w>"
    ],
    [
      "에서",
      "는</w>"
    ],
    [
      "하",
      "게</w>"
    ],
    [
      "른",
      "</w>"
    ],
    [
      "야",
      "</w>"
    ],
    [
      "때문",
      "에</w>"
    ],
    [
      "으",
      "로"
    ],
    [
      "지만",
      ",</w>"
    ],
    [
      "때",
      "</w>"
    ],
    [
      "리",
      "</w>"
    ],
    [
      "하",
      "고</w>"
    ],
    [
      "이",
      "러"
    ],
    [
      "들",
      "어"
    ],
    [
      "이",
      "나</w>"
    ],
    [
      "이러",
      "한</w>"
    ],
    [
      "나",
      "요?</w>"
    ],
    [
      "하",
      "기</w>"
    ],
    [
      "무엇",
      "인가요?</w>"
    ],
    [
      "들",
      "이</w>"
    ],
    [
      "다",
      "</w>"
    ],
    [
      "다",
      "는</w>"
    ],
    [
      "는데",
      ",</w>"
    ],
    [
      "되",
      "어</w>"
    ],
    [
      "그",
      "</w>"
    ],
    [
      "되",
      "는</w>"
    ],
    [
      "것",
      "입니다.</w>"
    ],
    [
      "으",
      "며,</w>"
    ],
    [
      "방",
      "법"
    ],
    [
      "따라",
      "서</w>"
    ],
    [
      "것",
      "은</w>"
    ],
    [
      "다",
      "른</w>"
    ],
    [
      "왜",
      "</w>"
    ],
    [
      "어",
      "떤"
    ],
    [
      "같",
      "은</w>"
    ],
    [
      "어떤",
      "</w>"
    ],
    [
      "지만",
      "</w>"
    ],
    [
      "운",
      "</w>"
    ],
    [
      "사",
      "람"
    ],
    [
      "더",
      "</w>"
    ],
    [
      "히",
      "</w>"
    ],
    [
      "장",
      "</w>"
    ],
    [
      "되",
      "었"
    ],
    [
      "0",
      "0"
    ],
    [
      "이유",
      "는</w>"
    ],
    [
      "의",
      "미"
    ],
    [
      "시",
      "</w>"
    ],
    [
      "따라",
      "</w>"
    ],
    [
      "일",
      "반"
    ],
    [
      "요",
      ".</w>"
    ],
    [
      "가",
      "능"
    ],
    [
      "면",
      "서</w>"
    ],
    [
      "일",
      "</w>"
    ],
    [
      "하",
      "지</w>"
    ],
    [
      "아",
      "</w>"
    ],
    [
      "들",
      "은</w>"
    ],
    [
      "서",
      ",</w>"
    ],
    [
      "궁",
      "금"
    ],
    [
      "그",
      "러"
    ],
    [
      "리",
      "는</w>"
    ],
    [
      "라",
      "</w>"
    ],
    [
      "터",
      "</w>"
    ],
    [
      "이",
      "를</w>"
    ],
    [
      "한",
      ",</w>"
    ],
    [
      "만",
      "</w>"
    ],
    [
      "또",
      "한,</w>"
    ],
    [
      "그",
      "리"
    ],
    [
      "을",
      "까요?</w>"
    ],
    [
      "며",
      "</w>"
    ],
    [
      "위",
      "해</w>"
    ],
    [
      "기",
      "가</w>"
    ],
    [
      "기",
      "를</w>"
    ],
    [
      "진",
      "</w>"
    ],
    [
      "지",
      "는</w>"
    ],
    [
      "발",
      "생"
    ],
    [
      "아",
      "니"
    ],
    [
      "라",
      "고</w>"
    ],
    [
      "기",
      "는</w>"
    ],
    [
      "면",
      ",</w>"
    ],
    [
      "하",
      "면</w>"
    ],
    [
      "가",
      "지"
    ],
    [
      "부",
      "분"
    ],
    [
      "등",
      "</w>"
    ],
    [
      "때문",
      "입니다.</w>"
    ],
    [
      "중",
      "</w>"
    ],
    [
      "필",
      "요"
    ],
    [
      "적",
      "</w>"
    ],
    [
      "궁금",
      "합니다.</w>"
    ],
    [
      "두",
      "</w>"
    ],
    [
      "그리",
      "고</w>"
    ],
    [
      "로",
      ",</w>"
    ],
    [
      "것",
      "을</w>"
    ],
    [
      "하",
      "지만</w>"
    ],
    [
      "해",
      "야</w>"
    ],
    [
      "차",
      "이"
    ],
    [
      "어",
      "떻"
    ],
    [
      "록",
      "</w>"
    ],
    [
      "후",
      "</w>"
    ],
    [
      "간",
      "</w>"
    ],
    [
      "져",
      "</w>"
    ],
    [
      "대",
      "한</w>"
    ],
    [
      ")",
      "</w>"
    ],
    [
      "이",
      "름"
    ],
    [
      "에",
      "도</w>"
    ],
    [
      "이",
      "며,</w>"
    ],
    [
      "어떻",
      "게</w>"
    ],
    [
      "리",
      "를</w>"
    ],
    [
      "든",
      "</w>"
    ],
    [
      "경우",
      "</w>"
    ],
    [
      "상",
      "</w>"
    ],
    [
      "가",
      "장</w>"
    ],
    [
      "해",
      "서</w>"
    ],
    [
      "나",
      "타"
    ],
    [
      "많",
      "이</w>"
    ],
    [
      "따라",
      "서,</w>"
    ],
    [
      "거",
      "나</w>"
    ],
    [
      "세",
      "요.</w>"
    ],
    [
      "다",
      "고</w>"
    ],
    [
      "하",
      "며,</w>"
    ],
    [
      "부",
      "터</w>"
    ],
    [
      "으",
      "면</w>"
    ],
    [
      "일",
      "까요?</w>"
    ],
    [
      "다",
      "양"
    ],
    [
      "좋",
      "습니다.</w>"
    ],
    [
      "으로",
      ",</w>"
    ],
    [
      "보",
      "다</w>"
    ],
    [
      "자",
      "</w>"
    ],
    [
      "물",
      "이</w>"
    ],
    [
      "리",
      "가</w>"
    ],
    [
      "그러",
      "나</w>"
    ],
    [
      "년",
      "</w>"
    ],
    [
      "함",
      "께"
    ],
    [
      "한",
      "국"
    ],
    [
      "물",
      "을</w>"
    ],
    [
      "스",
      "</w>"
    ],
    [
      "나",
      "라"
    ],
    [
      "도",
      "가</w>"
    ],
    [
      "이",
      "라는</w>"
    ],
    [
      "않",
      "습니다.</w>"
    ],
    [
      "란",
      "</w>"
    ],
    [
      "이",
      "용"
    ],
    [
      "되었",
      "습니다.</w>"
    ],
    [
      "있",
      "으며,</w>"
    ],
    [
      "함께",
      "</w>"
    ],
    [
      "만",
      "들"
    ],
    [
      "부",
      "</w>"
    ],
    [
      "성",
      "이</w>"
    ],
    [
      "므",
      "로</w>"
    ],
    [
      "러",
      "</w>"
    ],
    [
      "전",
      "</w>"
    ],
    [
      "물",
      "</w>"
    ],
    [
      "대",
      "</w>"
    ],
    [
      "많",
      "은</w>"
    ],
    [
      "등",
      "의</w>"
    ],
    [
      "어",
      "서</w>"
    ],
    [
      "제",
      "</w>"
    ],
    [
      "에",
      "게</w>"
    ],
    [
      "주",
      "</w>"
    ],
    [
      "현",
      "상"
    ],
    [
      "던",
      "</w>"
    ],
    [
      "만",
      "들어"
    ],
    [
      "하",
      "나"
    ],
    [
      "통",
      "해</w>"
    ],
    [
      "지",
      "역"
    ],
    [
      "알",
      "려"
    ],
    [
      "에서",
      "도</w>"
    ],
    [
      "약",
      "</w>"
    ],
    [
      "등",
      "이</w>"
    ],
    [
      "도",
      "록</w>"
    ],
    [
      "주",
      "세요.</w>"
    ],
    [
      "성",
      "</w>"
    ],
    [
      "표",
      "현"
    ],
    [
      "잘",
      "</w>"
    ],
    [
      "질",
      "</w>"
    ],
    [
      "1",
      "9"
    ],
    [
      "시",
      "간"
    ],
    [
      "기",
      "도</w>"
    ],
    [
      "들",
      "의</w>"
    ],
    [
      "상",
      "태"
    ],
    [
      "인",
      "해</w>"
    ],
    [
      "다양",
      "한</w>"
    ],
    [
      "효",
      "과"
    ],
    [
      "우",
      "리"
    ],
    [
      "자",
      "가</w>"
    ],
    [
      "다",
      "면</w>"
    ],
    [
      "사용",
      "하는</w>"
    ],
    [
      "해",
      "당"
    ],
    [
      "않",
      "는</w>"
    ],
    [
      "해",
      "서"
    ],
    [
      "1",
      "0"
    ],
    [
      "시",
      "작"
    ],
    [
      "세",
      "계"
    ],
    [
      "큰",
      "</w>"
    ],
    [
      "없",
      "습니다.</w>"
    ],
    [
      "안",
      "</w>"
    ],
    [
      "각",
      "</w>"
    ],
    [
      "하",
      "고,</w>"
    ],
    [
      "볼",
      "</w>"
    ],
    [
      "종",
      "류"
    ],
    [
      "국",
      "</w>"
    ],
    [
      "이",
      "에</w>"
    ],
    [
      "있",
      "을까요?</w>"
    ],
    [
      "등",
      "을</w>"
    ],
    [
      "하",
      "지만,</w>"
    ],
    [
      "주",
      "는</w>"
    ],
    [
      "까",
      "지</w>"
    ],
    [
      "문",
      "제"
    ],
    [
      "될",
      "</w>"
    ],
    [
      "있",
      "었"
    ],
    [
      "위",
      "치"
    ],
    [
      "모",
      "양"
    ],
    [
      "우",
      "</w>"
    ],
    [
      "나",
      "오"
    ],
    [
      "일",
      "본"
    ],
    [
      "도",
      "를</w>"
    ],
    [
      "영",
      "화"
    ],
    [
      "가지",
      "고</w>"
    ],
    [
      "이",
      "상"
    ],
    [
      "중",
      "요"
    ],
    [
      "방",
      "식"
    ],
    [
      "여",
      "러</w>"
    ],
    [
      "정",
      "</w>"
    ],
    [
      "것",
      "으로</w>"
    ],
    [
      "현",
      "재"
    ],
    [
      "이",
      "라고</w>"
    ],
    [
      "용",
      "</w>"
    ],
    [
      "또",
      "한</w>"
    ],
    [
      "있",
      "나요?</w>"
    ],
    [
      "스",
      "트"
    ],
    [
      "에",
      ",</w>"
    ],
    [
      "가",
      "지</w>"
    ],
    [
      "i",
      "n"
    ],
    [
      "는",
      "지</w>"
    ],
    [
      "과",
      "정"
    ],
    [
      "집",
      "니다.</w>"
    ],
    [
      "e",
      "r"
    ],
    [
      "대",
      "해</w>"
    ],
    [
      "경우",
      "가</w>"
    ],
    [
      "지",
      "를</w>"
    ],
    [
      "드",
      "</w>"
    ],
    [
      "나",
      "무"
    ],
    [
      "나",
      ",</w>"
    ],
    [
      "사",
      "</w>"
    ],
    [
      "는데",
      "</w>"
    ],
    [
      "했",
      "습니다.</w>"
    ],
    [
      "영",
      "향"
    ],
    [
      "경우",
      ",</w>"
    ],
    [
      "설",
      "명"
    ],
    [
      "들",
      "을</w>"
    ],
    [
      "역",
      "할"
    ],
    [
      "기",
      "의</w>"
    ],
    [
      "일반",
      "적으로</w>"
    ],
    [
      "월",
      "</w>"
    ],
    [
      "정",
      "보"
    ],
    [
      "존",
      "재"
    ],
    [
      "력",
      "이</w>"
    ],
    [
      "지",
      "하"
    ],
    [
      "모",
      "든</w>"
    ],
    [
      "또",
      "는</w>"
    ],
    [
      "이",
      "루"
    ],
    [
      "알",
      "고</w>"
    ],
    [
      "이",
      "기</w>"
    ],
    [
      "색",
      "</w>"
    ],
    [
      "국",
      "가"
    ],
    [
      "으로",
      "는</w>"
    ],
    [
      "정",
      "확"
    ],
    [
      "a",
      "n"
    ],
    [
      "되",
      "지</w>"
    ],
    [
      "매",
      "우</w>"
    ],
    [
      "내",
      "는</w>"
    ],
    [
      "예",
      "를</w>"
    ],
    [
      "있",
      "기</w>"
    ],
    [
      "지",
      "구"
    ],
    [
      "신",
      "</w>"
    ],
    [
      "나",
      "는</w>"
    ],
    [
      "위",
      "한</w>"
    ],
    [
      "2",
      "0"
    ],
    [
      "기",
      "에</w>"
    ],
    [
      "및",
      "</w>"
    ],
    [
      "유",
      "래"
    ],
    [
      "지",
      "방"
    ],
    [
      "정",
      "도"
    ],
    [
      "드",
      "는</w>"
    ],
    [
      "때문",
      "에,</w>"
    ],
    [
      "용",
      "어"
    ],
    [
      "있",
      "으"
    ],
    [
      "일",
      "어"
    ],
    [
      "때",
      ",</w>"
    ],
    [
      "로",
      "는</w>"
    ],
    [
      "관",
      "련"
    ],
    [
      "자",
      "를</w>"
    ],
    [
      "식",
      "</w>"
    ],
    [
      "무엇",
      "일까요?</w>"
    ],
    [
      "기",
      "술"
    ],
    [
      "건",
      "가요?</w>"
    ],
    [
      "통",
      "</w>"
    ],
    [
      "시",
      "키"
    ],
    [
      "대",
      "부분"
    ],
    [
      "자",
      "는</w>"
    ],
    [
      "이유",
      "가</w>"
    ],
    [
      "르",
      "게</w>"
    ],
    [
      "해당",
      "</w>"
    ],
    [
      "자",
      "신"
    ],
    [
      "해서",
      "는</w>"
    ],
    [
      "하",
      "면서</w>"
    ],
    [
      "처",
      "럼"
    ],
    [
      "래",
      "</w>"
    ],
    [
      "높",
      "은</w>"
    ],
    [
      "'",
      "</w>"
    ],
    [
      "구",
      "분"
    ],
    [
      "'",
      "는</w>"
    ],
    [
      "있",
      "을</w>"
    ],
    [
      "제",
      "품"
    ],
    [
      "사",
      "이"
    ],
    [
      "모",
      "두</w>"
    ],
    [
      "없",
      "는</w>"
    ],
    [
      "이",
      "가</w>"
    ],
    [
      "단",
      "어"
    ],
    [
      "제",
      "거"
    ],
    [
      "것",
      "</w>"
    ],
    [
      "때",
      "는</w>"
    ],
    [
      "린",
      "</w>"
    ],
    [
      "e",
      "</w>"
    ],
    [
      "대",
      "로</w>"
    ],
    [
      "상",
      "황"
    ],
    [
      "소",
      "</w>"
    ],
    [
      "되",
      "며,</w>"
    ],
    [
      "/",
      "</w>"
    ],
    [
      "개",
      "</w>"
    ],
    [
      "동",
      "물"
    ],
    [
      "같",
      "이</w>"
    ],
    [
      "차이",
      "가</w>"
    ],
    [
      "자",
      "세"
    ],
    [
      "포",
      "함"
    ],
    [
      "유",
      "지"
    ],
    [
      "형",
      "태"
    ],
    [
      "처럼",
      "</w>"
    ],
    [
      "음",
      "</w>"
    ],
    [
      "트",
      "</w>"
    ],
    [
      "되",
      "고</w>"
    ],
    [
      "있",
      "지만,</w>"
    ],
    [
      "생",
      "각"
    ],
    [
      "르",
      "는</w>"
    ],
    [
      "아니",
      "라</w>"
    ],
    [
      "이루",
      "어"
    ],
    [
      "난",
      "</w>"
    ],
    [
      "성",
      "분"
    ],
    [
      "싶",
      "습니다.</w>"
    ],
    [
      "력",
      "을</w>"
    ],
    [
      "기",
      "준"
    ],
    [
      "성",
      "을</w>"
    ],
    [
      "아",
      "서</w>"
    ],
    [
      "물",
      "에</w>"
    ],
    [
      "런",
      "</w>"
    ],
    [
      "선",
      "택"
    ],
    [
      "이",
      "어"
    ],
    [
      "물",
      "질"
    ],
    [
      "사",
      "진"
    ],
    [
      "사용",
      "됩니다.</w>"
    ],
    [
      "경우",
      "에는</w>"
    ],
    [
      "움",
      "직"
    ],
    [
      "실",
      "제"
    ],
    [
      "긴",
      "</w>"
    ],
    [
      "하",
      "였"
    ],
    [
      "기",
      "와</w>"
    ],
    [
      "전",
      "에</w>"
    ],
    [
      "차이",
      "점"
    ],
    [
      "건",
      "강"
    ],
    [
      "선",
      "</w>"
    ],
    [
      "영향",
      "을</w>"
    ],
    [
      "변",
      "화"
    ],
    [
      "역할",
      "을</w>"
    ],
    [
      "산",
      "</w>"
    ],
    [
      "주",
      "로</w>"
    ],
    [
      "인",
      "지</w>"
    ],
    [
      "데",
      ",</w>"
    ],
    [
      "a",
      "l"
    ],
    [
      "음",
      "식"
    ],
    [
      "그",
      "래"
    ],
    [
      "대",
      "표"
    ],
    [
      "기",
      "능"
    ],
    [
      "데",
      "</w>"
    ],
    [
      "사용",
      "되는</w>"
    ],
    [
      "날",
      "</w>"
    ],
    [
      "형",
      "</w>"
    ],
    [
      "a",
      "r"
    ],
    [
      "그",
      "렇"
    ],
    [
      "있",
      "는데,</w>"
    ],
    [
      "문",
      "화"
    ],
    [
      "므",
      "로,</w>"
    ],
    [
      "내",
      "용"
    ],
    [
      "울",
      "</w>"
    ],
    [
      "원",
      "</w>"
    ],
    [
      "이",
      "야"
    ],
    [
      "중",
      "국"
    ],
    [
      "가",
      "는</w>"
    ],
    [
      "걸",
      "까요?</w>"
    ],
    [
      "체",
      "</w>"
    ],
    [
      "할",
      "까요?</w>"
    ],
    [
      "작",
      "용"
    ],
    [
      "수",
      "가</w>"
    ],
    [
      "가능",
      "합니다.</w>"
    ],
    [
      ")",
      ",</w>"
    ],
    [
      "온",
      "</w>"
    ],
    [
      "있",
      "어</w>"
    ],
    [
      "마",
      "다</w>"
    ],
    [
      "차",
      "</w>"
    ],
    [
      "o",
      "n"
    ],
    [
      "려",
      "</w>"
    ],
    [
      "개",
      "의</w>"
    ],
    [
      "사",
      "를</w>"
    ],
    [
      "인",
      "이</w>"
    ],
    [
      "이",
      "란</w>"
    ],
    [
      "m",
      "</w>"
    ],
    [
      "음",
      "악"
    ],
    [
      "이",
      "와</w>"
    ],
    [
      "확",
      "인"
    ],
    [
      "아",
      "닌"
    ],
    [
      "미",
      "국"
    ],
    [
      "아",
      "지"
    ],
    [
      "이",
      "었"
    ],
    [
      "자",
      "의</w>"
    ],
    [
      "떨",
      "어"
    ],
    [
      "도",
      "는</w>"
    ],
    [
      "1",
      "5"
    ],
    [
      "다",
      "시</w>"
    ],
    [
      "속",
      "</w>"
    ],
    [
      "서",
      "로</w>"
    ],
    [
      "결",
      "정"
    ],
    [
      "번",
      "호"
    ],
    [
      "위",
      "해서는</w>"
    ],
    [
      "필요",
      "합니다.</w>"
    ],
    [
      "물",
      "의</w>"
    ],
    [
      "더",
      "욱"
    ],
    [
      "나오",
      "는</w>"
    ],
    [
      "이",
      "해"
    ],
    [
      "구",
      "조"
    ],
    [
      "수",
      "는</w>"
    ],
    [
      "하",
      "시"
    ],
    [
      "경우",
      "도</w>"
    ],
    [
      "조",
      "금"
    ],
    [
      "레",
      "이"
    ],
    [
      "수",
      "를</w>"
    ],
    [
      "어",
      "디"
    ],
    [
      "더욱",
      "</w>"
    ],
    [
      "물",
      "은</w>"
    ],
    [
      "무",
      "</w>"
    ],
    [
      "'",
      "은</w>"
    ],
    [
      "아",
      "이"
    ],
    [
      "위",
      "에</w>"
    ],
    [
      "방법",
      "은</w>"
    ],
    [
      "조",
      "선"
    ],
    [
      "일",
      "부</w>"
    ],
    [
      "e",
      "n"
    ],
    [
      "비",
      "슷"
    ],
    [
      "냄",
      "새"
    ],
    [
      "알려",
      "주세요.</w>"
    ],
    [
      "어",
      "야</w>"
    ],
    [
      "릅",
      "니다.</w>"
    ],
    [
      "자",
      "동"
    ],
    [
      "분",
      "</w>"
    ],
    [
      "라",
      "이"
    ],
    [
      "내",
      "부"
    ],
    [
      "들",
      "</w>"
    ],
    [
      "00",
      "0"
    ],
    [
      "사람",
      "이</w>"
    ],
    [
      "위",
      "를</w>"
    ],
    [
      "정",
      "한</w>"
    ],
    [
      "\"",
      "</w>"
    ],
    [
      "상",
      "을</w>"
    ],
    [
      "화",
      "</w>"
    ],
    [
      "사용",
      "할</w>"
    ],
    [
      "의",
      "해</w>"
    ],
    [
      "로",
      "운</w>"
    ],
    [
      "구",
      "성"
    ],
    [
      "이유",
      "로</w>"
    ],
    [
      "o",
      "r"
    ],
    [
      "스",
      "를</w>"
    ],
    [
      "졌",
      "습니다.</w>"
    ],
    [
      "좋",
      "은</w>"
    ],
    [
      "작",
      "은</w>"
    ],
    [
      "쉽",
      "게</w>"
    ],
    [
      "이",
      "미"
    ],
    [
      "들어",
      ",</w>"
    ],
    [
      "하",
      "며</w>"
    ],
    [
      "구",
      "</w>"
    ],
    [
      "1",
      ".</w>"
    ],
    [
      "사용",
      "합니다.</w>"
    ],
    [
      "수",
      "도</w>"
    ],
    [
      "문",
      "</w>"
    ],
    [
      "만",
      "든</w>"
    ],
    [
      "특",
      "징"
    ],
    [
      "보",
      "통</w>"
    ],
    [
      "위",
      "</w>"
    ],
    [
      "제",
      "가</w>"
    ],
    [
      "같",
      "습니다.</w>"
    ],
    [
      "하",
      "는데,</w>"
    ],
    [
      "우리",
      "나라"
    ],
    [
      "바",
      "람"
    ],
    [
      "장",
      "을</w>"
    ],
    [
      "어",
      "렵"
    ],
    [
      "결",
      "과"
    ],
    [
      "되",
      "나요?</w>"
    ],
    [
      "사",
      "는</w>"
    ],
    [
      "환",
      "경"
    ],
    [
      "보",
      "관"
    ],
    [
      "줍",
      "니다.</w>"
    ],
    [
      "종",
      "</w>"
    ],
    [
      "동",
      "안</w>"
    ],
    [
      "다",
      "가</w>"
    ],
    [
      "'",
      "라는</w>"
    ],
    [
      "간",
      "의</w>"
    ],
    [
      "많",
      "습니다.</w>"
    ],
    [
      "우",
      "리</w>"
    ],
    [
      "의미",
      "를</w>"
    ],
    [
      "a",
      "t"
    ],
    [
      "방",
      "향"
    ],
    [
      "다",
      "면,</w>"
    ],
    [
      "지",
      "지</w>"
    ],
    [
      "상",
      "이</w>"
    ],
    [
      "몇",
      "</w>"
    ],
    [
      "2",
      ".</w>"
    ],
    [
      "시",
      "대"
    ],
    [
      "자",
      "주</w>"
    ],
    [
      "실제",
      "로</w>"
    ],
    [
      "방법",
      "이</w>"
    ],
    [
      "운",
      "동"
    ],
    [
      "비",
      "</w>"
    ],
    [
      "씩",
      "</w>"
    ],
    [
      "위",
      "험"
    ],
    [
      "았",
      "습니다.</w>"
    ],
    [
      "가",
      "루"
    ],
    [
      "도",
      "로</w>"
    ],
    [
      "기",
      "름"
    ],
    [
      "보",
      "이"
    ],
    [
      "제",
      "공"
    ],
    [
      "구",
      "멍"
    ],
    [
      "참",
      "고"
    ],
    [
      "어",
      "려"
    ],
    [
      "조",
      "절"
    ],
    [
      "렇",
      "게</w>"
    ],
    [
      "문제",
      "가</w>"
    ],
    [
      "현재",
      "</w>"
    ],
    [
      "정",
      "도</w>"
    ],
    [
      "세",
      "</w>"
    ],
    [
      "기",
      "록"
    ],
    [
      "필요",
      "한</w>"
    ],
    [
      "3",
      "0"
    ],
    [
      "보",
      "면</w>"
    ],
    [
      "지",
      ",</w>"
    ],
    [
      "고",
      "려"
    ],
    [
      "길",
      "</w>"
    ],
    [
      "모",
      "습"
    ],
    [
      "만",
      "드는</w>"
    ],
    [
      "이",
      "동"
    ],
    [
      "니",
      "</w>"
    ],
    [
      "보",
      "다는</w>"
    ],
    [
      "상",
      "대"
    ],
    [
      "력",
      "</w>"
    ],
    [
      "되",
      "면</w>"
    ],
    [
      "내",
      "</w>"
    ],
    [
      "차",
      "이는</w>"
    ],
    [
      "나",
      "라</w>"
    ],
    [
      "리",
      "카"
    ],
    [
      "보",
      "호"
    ],
    [
      "1",
      "2"
    ],
    [
      "정확",
      "한</w>"
    ],
    [
      "가능",
      "성이</w>"
    ],
    [
      "성",
      "은</w>"
    ],
    [
      "발",
      "음"
    ],
    [
      "제",
      "작"
    ],
    [
      "치",
      "는</w>"
    ],
    [
      "다",
      "음"
    ],
    [
      "이",
      "것은</w>"
    ],
    [
      "가",
      "격"
    ],
    [
      "반",
      "면,</w>"
    ],
    [
      "유",
      "명"
    ],
    [
      "일",
      "을</w>"
    ],
    [
      "있",
      "어서</w>"
    ],
    [
      "다",
      "르"
    ],
    [
      "바",
      "퀴"
    ],
    [
      "점",
      "이</w>"
    ],
    [
      ">",
      "</w>"
    ],
    [
      "비",
      "가</w>"
    ],
    [
      "있었",
      "습니다.</w>"
    ],
    [
      "되",
      "기</w>"
    ],
    [
      "실",
      "</w>"
    ],
    [
      "과",
      "는</w>"
    ],
    [
      "1",
      "8"
    ],
    [
      "달",
      "라"
    ],
    [
      "프",
      "로"
    ],
    [
      "커",
      "피"
    ],
    [
      "닙",
      "니다.</w>"
    ],
    [
      "작",
      "품"
    ],
    [
      "답",
      "변"
    ],
    [
      "최",
      "근"
    ],
    [
      "생",
      "산"
    ],
    [
      "스",
      "크"
    ],
    [
      "중",
      "심"
    ],
    [
      "프",
      "랑"
    ],
    [
      "저",
      "</w>"
    ],
    [
      "말",
      "합니다.</w>"
    ],
    [
      "이",
      "렇게</w>"
    ],
    [
      "않",
      "은</w>"
    ],
    [
      "어",
      "느"
    ],
    [
      "우",
      "유"
    ],
    [
      "기",
      "관"
    ],
    [
      "거",
      "의</w>"
    ],
    [
      "먹",
      "는</w>"
    ],
    [
      "반",
      "응"
    ],
    [
      "방법",
      "을</w>"
    ],
    [
      "시",
      "간</w>"
    ],
    [
      "체",
      "가</w>"
    ],
    [
      "시",
      "켜"
    ],
    [
      "진",
      "행"
    ],
    [
      "것",
      "도</w>"
    ],
    [
      "i",
      "c"
    ],
    [
      "장",
      "이</w>"
    ],
    [
      "중요",
      "한</w>"
    ],
    [
      "안",
      "전"
    ],
    [
      "만",
      "약</w>"
    ],
    [
      "재",
      "료"
    ],
    [
      "지",
      "가</w>"
    ],
    [
      "o",
      "m"
    ],
    [
      "발생",
      "하는</w>"
    ],
    [
      "조",
      "</w>"
    ],
    [
      "전",
      "자"
    ],
    [
      "들",
      "어</w>"
    ],
    [
      "도",
      "움"
    ],
    [
      "판",
      "매"
    ],
    [
      "벌",
      "레"
    ],
    [
      "자",
      "연"
    ],
    [
      "설",
      "탕"
    ],
    [
      "직",
      "접"
    ],
    [
      "1",
      "00"
    ],
    [
      "있",
      "다는</w>"
    ],
    [
      "의미",
      "합니다.</w>"
    ],
    [
      "적",
      "절"
    ],
    [
      "있",
      "고,</w>"
    ],
    [
      "전",
      "기"
    ],
    [
      "릴",
      "</w>"
    ],
    [
      "라",
      "도</w>"
    ],
    [
      "고",
      "양"
    ],
    [
      "예",
      "방"
    ],
    [
      "외",
      "에도</w>"
    ],
    [
      "이",
      "런</w>"
    ],
    [
      "수",
      "록</w>"
    ],
    [
      "\"",
      "는</w>"
    ],
    [
      "계",
      "란"
    ],
    [
      "측",
      "정"
    ],
    [
      "않",
      "고</w>"
    ],
    [
      "3",
      ".</w>"
    ],
    [
      "아",
      "닙니다.</w>"
    ],
    [
      "역",
      "사"
    ],
    [
      "치",
      "료"
    ],
    [
      "선",
      "을</w>"
    ],
    [
      "은",
      "행"
    ],
    [
      "s",
      "t"
    ],
    [
      "번",
      "째"
    ],
    [
      "자신",
      "의</w>"
    ],
    [
      "그",
      "림"
    ],
    [
      "하",
      "나요?</w>"
    ],
    [
      "온",
      "도"
    ],
    [
      "너",
      "무</w>"
    ],
    [
      "본",
      "</w>"
    ],
    [
      "색",
      "깔"
    ],
    [
      "만들",
      "</w>"
    ],
    [
      "립",
      "니다.</w>"
    ],
    [
      "가",
      "진</w>"
    ],
    [
      "이",
      "후</w>"
    ],
    [
      "5",
      "0"
    ],
    [
      "생",
      "기"
    ],
    [
      "표",
      "시"
    ],
    [
      "새",
      "로운</w>"
    ],
    [
      "행",
      "동"
    ],
    [
      "자세",
      "히</w>"
    ],
    [
      "없",
      "이</w>"
    ],
    [
      "리",
      "에</w>"
    ],
    [
      "작",
      "업"
    ],
    [
      "태",
      "양"
    ],
    [
      "해",
      "도</w>"
    ],
    [
      "올",
      "</w>"
    ],
    [
      "과정",
      "에서</w>"
    ],
    [
      "어",
      "도</w>"
    ],
    [
      "수",
      "분"
    ],
    [
      "형",
      "성"
    ],
    [
      "이",
      "고,</w>"
    ],
    [
      "안",
      "에</w>"
    ],
    [
      "체",
      "의</w>"
    ],
    [
      "인",
      "공"
    ],
    [
      "어느",
      "</w>"
    ],
    [
      "일",
      "이</w>"
    ],
    [
      "어",
      ",</w>"
    ],
    [
      "이",
      "상</w>"
    ],
    [
      "일반",
      "적"
    ],
    [
      "해",
      "주세요.</w>"
    ],
    [
      "다",
      "'"
    ],
    [
      "관",
      "계"
    ],
    [
      "게",
      "임"
    ],
    [
      "불",
      "리"
    ],
    [
      "지",
      "막"
    ],
    [
      "면",
      "에</w>"
    ],
    [
      "뿐",
      "만</w>"
    ],
    [
      "디",
      "자"
    ],
    [
      "등",
      "장"
    ],
    [
      "개",
      "념"
    ],
    [
      "추",
      "가"
    ],
    [
      "그래",
      "서</w>"
    ],
    [
      "등",
      "에</w>"
    ],
    [
      "인",
      "터"
    ],
    [
      "자",
      "와</w>"
    ],
    [
      "오",
      "는</w>"
    ],
    [
      "마",
      "지막"
    ],
    [
      "질",
      "이</w>"
    ],
    [
      "즉",
      ",</w>"
    ],
    [
      "중요",
      "합니다.</w>"
    ],
    [
      "일반",
      "적인</w>"
    ],
    [
      "차",
      "량"
    ],
    [
      "물",
      "고"
    ],
    [
      "케",
      "이"
    ],
    [
      "하",
      "거나</w>"
    ],
    [
      "리",
      ",</w>"
    ],
    [
      "거",
      "나,</w>"
    ],
    [
      "리",
      "의</w>"
    ],
    [
      "중",
      "에</w>"
    ],
    [
      "'",
      "을</w>"
    ],
    [
      "영",
      "어"
    ],
    [
      "있",
      "다.</w>"
    ],
    [
      "사용",
      "하여</w>"
    ],
    [
      "사",
      "실"
    ],
    [
      "정보",
      "를</w>"
    ],
    [
      "연",
      "결"
    ],
    [
      "스",
      "타"
    ],
    [
      "이",
      "로</w>"
    ],
    [
      "렌",
      "즈"
    ],
    [
      "지",
      "의</w>"
    ],
    [
      "설",
      "치"
    ],
    [
      "생",
      "활"
    ],
    [
      "터",
      "를</w>"
    ],
    [
      "주",
      "변"
    ],
    [
      "발",
      "전"
    ],
    [
      "분",
      "야"
    ],
    [
      "에서",
      "의</w>"
    ],
    [
      "시간",
      "이</w>"
    ],
    [
      "쪽",
      "</w>"
    ],
    [
      "알려",
      "져</w>"
    ],
    [
      "맛",
      "이</w>"
    ],
    [
      "일반",
      "</w>"
    ],
    [
      "기",
      ",</w>"
    ],
    [
      "대",
      "회"
    ],
    [
      "바",
      "다"
    ],
    [
      "요",
      "소"
    ],
    [
      "다",
      "릅니다.</w>"
    ],
    [
      "면",
      "을</w>"
    ],
    [
      "대부분",
      "</w>"
    ],
    [
      "도",
      ",</w>"
    ],
    [
      "철",
      "</w>"
    ],
    [
      "보",
      "이는</w>"
    ],
    [
      "해",
      "지"
    ],
    [
      "권",
      "</w>"
    ],
    [
      "단",
      "위"
    ],
    [
      "있",
      "도록</w>"
    ],
    [
      "소",
      "금"
    ],
    [
      "대표",
      "적인</w>"
    ],
    [
      "주",
      "의"
    ],
    [
      "회",
      "전"
    ],
    [
      "치",
      "를</w>"
    ]
  ],
  "special_tokens": [
    "<pad>",
    "<unk>",
    "<s>",
    "</s>"
  ]
}